00111111001010100011100110000010001111011011011000001111011100100011111101010001010000100110011100111111010110101010110001001011
00111111010010011111110010110001001111101001110011011100100011110011111101100000111100010110010100111111001111111111110000110011
00111111000111110110110101000101001111110101011010010010101110110011111101001111010000001110101000111110100111101000011001010110
00111110111110001110100000111001001111110111000000111001010010000011111010010110101011101001100100111111000101011101001101111001