0011110110011000001011111001000000111110110100010000000001111000001111110010100001110011110111010011111100100010101101011101100000111101111111100011010001001010001111110001001011010110100010000011111000011100010100000101011100111111010011010011001010000111001111100001011111001111000011110011110011001010011110101011100000111100101010100000001101101110 0011110111010100000111000011110100111111010110111011001100011010001111011010100111101010001000110011111001111001110100110111100000111101010010001011010010101000001111110000010110110011101100110011111100101000111111001101100100111110100111100011001111011110001111010100100000001101001111100011111001100010100001111011111100111110100000110101010001010000 0011111001011100000010011100011000111111001100110000010001100010001111101110101010010011101011100011111100110000011011110111101000111110011011100100111111101111001111110011010100010111111000110011111101011010000001110001011100111111011101000001100010110101001111110111001111111111111110000011111011100110111001011011100000111111010101111100111001010011 0011111101010000000000111010011100111110100010101100100011111110001111110001110001100111111011010011111011001011010100100001000100111111011111001100111100110100001111110111101010100111011000000011111100100101011000111111011100111110101111011011110001000000001111011001011001100011011100100011111011100001110000010011100000111110000000110011101000110110 0011111101100010111110110001010100111111010001001101110101110111001111110000100100110000110101110011111101100100110011111011000000111111010111101001111000110000001111110111000010001101100101010011111100110101111111101110101000111100101101010001101100010111001111010110011000111000001100000011111101011110110011111110101100111110011100001011101000010101 
0011111010010010011000101010100000111111000011110101110101111110001111100000111010110010010010110011111101001010010001000010110100111111011101000001010011000101001111110011001001110100001101010011111010100011001011011000110100111110101100010110001011001101001111010000101011100110000101110011111000101010000111011011111100111111010101010100010100110111 0011111100111100111001110000011000111111001011101011001101001010001111110010100101111101100100110011111011111101101110110011110100111111011001000110001011110100001111110000000111011111001010010011111000100101100010001100101100111111011001000100111010110110001111011010110011000010111000010011111001010000100110101101001100111110011100111001000111000001 0011111010100100101010100100101100111111000001011111110010110100001111110010001111101101101000110011111100111101001001010100000000111110111100111011001110011111001111101011101010011111010011000011111101001011011010001101101000111111000111111010100010110001001111100101011010101010111001000011111100110011101100100111011000111110010011111000011100111001 0011110001010000100001011000010100111110101011110011101101110000001111110100111010110100100010100011111011011110101110001011010000111110100100101110100011110001001111101010100001000010110010010011111100110110110100101111111000111111000010000100111011110010001111100011101111000100111011100011111101001001111001001001100000111111010011000100001100110011 0011111011111011011010001101000100111100101110000111101101000110001111101100110000100001110001010011111011101001100010000010011100111110011111111000001001001111001111101000011000010101001010000011111011000010000111011110011100111101101011011100100111101101001111110000110110001111111100100011111010101010100101001111010000111110110001111100110110100100 
0011111101001000100010101010011100111111000000011001011100001011001111110100111001110111110001100011111001110011101001010110101000111111001100011100100001000110001111110010001101001110011100010011111100110101010111001110111100111110101100110001000000001110001111101111110100100111000111010011110001001000110101101011011100111110111101011111010000110001 0011111100000101000100001110000100111110100001001100101011000101001111101001011001110101011111110011111101101110000000110001000000111111001000100100001101000001001111110110100010000110100010110011111101110011001000011111011000111111001000001001000000111110001111100101101011011110010110100011111100100010010000001011001100111101001010010101001000000111 0011111100111001101010000110011000111111000100010001011011001110001111110011101101011001010111100011111000000011001110111111010100111110110001100011100110110111001111110001010000110010011110100011111001101100110010100110100000111110111100001000111100101010001111110001110111111111110100010011111001001110110001000110100000111110000010010000111000001000 0011111101010011101010101100111000111111001000000011101101001011001111101101011100111010100111100011111010100100111111010110101000111111010110101001001100010000001111100011101000011001001010100011111100010111010101010011011000111110000001100100001010010000001111101010011000001000001011000011111101101000001011000100101000111101000110000010011010000000 0011111101111001000001111110011100111111011001001011010100000101001111110010000010000100000110000011111101010000100110011010000100111100100100101100010100000100001111101010100110000011001110010011110111000001100011111110001000111111001000101111011110011100001111110000001000000011000001010011111100100100011100101100111100111111011111100110011111011110 
0011110110000010001100010100110100111110101110000010001100111011001111110000101010100011111010000011111100010100010110110110101100111111011100010010000101001001001111110111101101010110000010100011111010011110010001011110100100111111010010111100001011110110001111100100000101010010011000010011111101010111001000111011000100111111001100010100100101110110 0011111100100111011010100111110100111110110011011000110011010001001111110010101001011111111100100011111000100101110011010101110100111110101011000001111100111001001111110011101001000010000001000011111001100001011001000011000000111110101100100100111101001010001111100110100000110100010000010011111001000011001000100011010100111101111100101101011011100111 0011111101000111110110111011100000111110011110010011100001111101001111110111110011100000110101010011111100101101110001011111010100111110011110011011001100001001001111101110110010001000110111100011111011110010010110110001100100111110000001001111111010110110001111010001101011110000001100110011111100010001011001101101100000111111011110000100010001101101 0011111000110111110001011111010000111101110110001011100010001010001111100111010011111010100011010011110101001111101001011001100100111111010110111110100110100010001111101000110111101001100000100011111100111001111011011000001000111110101010001100111001101110001111101000010100110110010101100011111010010000000010010000010100111111010110101111101011111001 0011111100001100111001110001001100111111000011111010100011110100001111110001100110101010101111000011111100100000111111101111111000111111011110011011011001111001001111101110111100110011111010000011111011001011000010001010011000111110001001110000001011011110001111101011100100000000000110000011111011101101010000100100010000111111001100110101110100110000 
0011110111011010011000001111001000111110100110100101111010011110001111110101001010101010000011000011111000000001001000110011111000111110001101111001100110110000001111101100110101111000000000000011110010001111000101011010000000111111001110010011010000010100001111101111111010010010010111010011111010101011011000111110001100111111000000110001011100011001 0011111101110011001000101110001000111111010110000010010101001100001111110000010110011000101001010011111010001100011100101010110000111110111101011011001100100001001111110110010111111100000010100011111011101110010100010011001000111111010100101010000001010011001111110000100101100010110001110011110011100001001111001001010000111111010100000110101001001110 0011111101010101111110111100011000111110100111011000111011101111001111110101110000100011001000010011111101111111111010000110101100111111011101100000100000101111001111110101010001101011101010110011111011110010000111100011010000111111010011011001110110000000001111110111011100100111001010110011111101011000110100111101110000111111000000000100000111101101 0011111101111000000111001100110000111110110100000101001000101010001111101100000000101001001010100011111101110011110111101100111000111100101001010010101101011100001111100101101110101100101011010011111100011111110100111011111000111110110110001101010100010011001111101110110111100000011010110011111000101110101100101110111000111111001000101111100000000111 0011111101001111110110100101110000111111011101000110110000101001001111100111001001010001101110000011111101110010011001001110001000111110010010010001111010110111001111100010001100100101101101110011111000111000111101010001000000111111001100010101011111111010001111101100001110100011011000100011111000111110010110110000110100111110010001101100110001100000 
