10111101000101100000110110111100011101101000000101101011101111001010001011000101111011001111110010000111000110010011000101111100
01110011100101110100001101111100000001100010001101101011011111001000101111111101100100001111110011001100110110111011101101111100
01110001010111010101101111111100011111000111101111000000100111001110101000001000000001100101110000010001101000111000101110011100
10110000011101011011010011111100001000001011010010111100111111001100101010011111001011010111110000010101000011001001100011111100
00001101101100001001100011111100111100000101010000111101011111001001111100110011101000001111110010111101011100000100001101111100
10000111000000000001011101111100010111100101111001000101011111000010010000111111011100010111110001000100110110011010111001111100
10011001011111110101101111111100000000000000000000000000000000000000000000000000000000000000000000000000000000000000000000000000
00000001001000111111100111111100010010001100011111011101101111001010111001011111000001100111110001111001101110101010111110111100
10011001011111110101101111111100000000000000000000000000000000000000000000000000000000000000000000000000000000000000000000000000
11010111101011000010010111111100101111011111000011010101101111000100001010100011100010100111110000000101011000100100011110111100
10011001011111110101101111111100000000000000000000000000000000000000000000000000000000000000000000000000000000000000000000000000
00010000111010000111010111111100000111101010110010110010101111001001100011101001001110000111110011101010110111100101100110111100
10011001011111110101101111111100000000000000000000000000000000000000000000000000000000000000000000000000000000000000000000000000
00111110011110111101101111111100000101011100000001001011010111000000001001001000100000010011110000000010010010001000000111011100
10011001011111110101101111111100000000000000000000000000000000000000000000000000000000000000000000000000000000000000000000000000
10011001011111110101101111111100000000000000000000000000000000000000000000000000000000000000000000000000000000000000000000000000
10011001011111110101101111111100000000000000000000000000000000000000000000000000000000000000000000000000000000000000000000000000
10011000101101010100101111111100111011001100011110000101110111000101110001010001000101110011110010100101010101011001110000111100
10011001011111110101101111111100000000000000000000000000000000000000000000000000000000000000000000000000000000000000000000000000
10001001100101010100101111111100111111001001000111000101110111000001101101101111011001110011110010010100100001111010110000111100
10011001011111110101101111111100000000000000000000000000000000000000000000000000000000000000000000000000000000000000000000000000
01001001101001010101001111111100111011000111110010111000001111001010110000010011101001101011110011000010111001000010110100111100
10011001011111110101101111111100000000000000000000000000000000000000000000000000000000000000000000000000000000000000000000000000
00001010000010111101101111111100001101011110110100100011010111000000111000110011100011100011110000001110001100111000111011011100
10011001011111110101101111111100000000000000000000000000000000000000000000000000000000000000000000000000000000000000000000000000
10011001011111110101101111111100000000000000000000000000000000000000000000000000000000000000000000000000000000000000000000000000
10011001011111110101101111111100000000000000000000000000000000000000000000000000000000000000000000000000000000000000000000000000
11111111101111101100101111111100010110001010010101110001110111000100001110101000010010110011110011010010001000010110010000111100
10011001011111110101101111111100000000000000000000000000000000000000000000000000000000000000000000000000000000000000000000000000
00010010110111101100101111111100101011101110100000001001110111001111000111100011000010110011110000101110000111101100010000111100
10011001011111110101101111111100000000000000000000000000000000000000000000000000000000000000000000000000000000000000000000000000
10011000010111000011001111111100111101010010110011010000001111001010110000100011111100101011110010010111111010000100010100111100
10011001011111110101101111111100000000000000000000000000000000000000000000000000000000000000000000000000000000000000000000000000
10001101100000111101101111111100101001101000000011101101010111000001110110001111000001100011110000011101100011110000011011011100
10011001011111110101101111111100000000000000000000000000000000000000000000000000000000000000000000000000000000000000000000000000
10011001011111110101101111111100000000000000000000000000000000000000000000000000000000000000000000000000000000000000000000000000
10011001011111110101101111111100000000000000000000000000000000000000000000000000000000000000000000000000000000000000000000000000
11011100110111000010101111111100110100110000100100111110110111001100110110000101101111010011110011100011100011101010100000111100
10011001011111110101101111111100000000000000000000000000000000000000000000000000000000000000000000000000000000000000000000000000
10000100100111000010101111111100111000000011000011111110110111000110101001110001001111010011110001100101101111110100100000111100
10011001011111110101101111111100000000000000000000000000000000000000000000000000000000000000000000000000000000000000000000000000
00010001100101011011001111111100001101011010011011101111110111000011110011001101110111001011110000100010110001111000100100111100
10011001011111110101101111111100000000000000000000000000000000000000000000000000000000000000000000000000000000000000000000000000
11111000110011011101101111111100011101000110101010010101010111000101100100100100000010100011110001011001001001000000101011011100
10011001011111110101101111111100000000000000000000000000000000000000000000000000000000000000000000000000000000000000000000000000
10001000010101010000101111111100001001101011000010010010001111001110001101011111100010001011110000011011101100101100100100111100
10011001011111110101101111111100000000000000000000000000000000000000000000000000000000000000000000000000000000000000000000000000
10011101001001110010101111111100010111000101111001000110110111000101111010110100010101010011110011011001011011000010000000111100
10011001011111110101101111111100000000000000000000000000000000000000000000000000000000000000000000000000000000000000000000000000
10110101011011110111001111111100010011001100111000111011110111000000110001101110100101001011110000100011110010101100000100111100
10011001011111110101101111111100000000000000000000000000000000000000000000000000000000000000000000000000000000000000000000000000
00110111001001011101101111111100010010010010000000111001010111001111100110100011111111000011110011111001101000111111110011011100
10011001011111110101101111111100000000000000000000000000000000000000000000000000000000000000000000000000000000000000000000000000
00001111111001011000101111111100010110010000111101001100001111000101101111111010110000001011110001101001000010011100000100111100
10011001011111110101101111111100000000000000000000000000000000000000000000000000000000000000000000000000000000000000000000000000
00010101111111101010101111111100011111101111100110010010110111000010001011000001100110010011110000001011001001111011011111011100
10011001011111110101101111111100000000000000000000000000000000000000000000000000000000000000000000000000000000000000000000000000
00011010001001000000101111111100011100011001101100100011110111001111111101010111000110001011110010011001111011100011011000111100
10011001011111110101101111111100000000000000000000000000000000000000000000000000000000000000000000000000000000000000000000000000
11110010111010011101101111111100101111101111110011110001010111000000011011001000000011000011110000000110110010000000110011011100
10011001011111110101101111111100000000000000000000000000000000000000000000000000000000000000000000000000000000000000000000000000
00100111111100010100101111111100111110100101011000000100001111000100001000011001001101110011110000101100011010000011011000111100
10011001011111110101101111111100000000000000000000000000000000000000000000000000000000000000000000000000000000000000000000000000
01001110110100000110101111111100111111111001101111001100110111000111011100110110010100010011110001111000011100000110101111011100
10011001011111110101101111111100000000000000000000000000000000000000000000000000000000000000000000000000000000000000000000000000
01011100101011001000101111111100110111100111000000001101110111000100100011110111100100001011110000010101111001110010101000111100
10011001011111110101101111111100000000000000000000000000000000000000000000000000000000000000000000000000000000000000000000000000
10010110010100011101101111111100000111000110010011000001010111000000101000101100100001000011110000001010001011001000010011011100
10011001011111110101101111111100000000000000000000000000000000000000000000000000000000000000000000000000000000000000000000000000
11000011010001101100101111111100111001000111101000001000001111000001000101011000101010110011110011000110100110100010101000111100
10011001011111110101101111111100000000000000000000000000000000000000000000000000000000000000000000000000000000000000000000000000
11111110100100010110101111111100000111111011010100000100110111000011010100001001100111100011110011010000000001010000001111011100
10011001011111110101101111111100000000000000000000000000000000000000000000000000000000000000000000000000000000000000000000000000
01000111110101000100101111111100011110001110010110111001110111000001011010000011000111110011110000111010010011011111110000111100
10011001011111110101101111111100000000000000000000000000000000000000000000000000000000000000000000000000000000000000000000000000
10110010011111101101101111111100111111000010100111110110010111000001001110111100110010000011110000010011101111001100100011011100
10011001011111110101101111111100000000000000000000000000000000000000000000000000000000000000000000000000000000000000000000000000
11010111100001000010101111111100101101011111010001000000001111001010101111101111111111010011110010000010000000101111110000111100
10011001011111110101101111111100000000000000000000000000000000000000000000000000000000000000000000000000000000000000000000000000
10111000110111110110101111111100100111000101110111110000110111000000001110010111000001100011110011000110010110101011010111011100
10011001011111110101101111111100000000000000000000000000000000000000000000000000000000000000000000000000000000000000000000000000
01001101010100001100101111111100111001010111001010110001110111001010100111111100000001110011110001111010010110010011010000111100
10011001011111110101101111111100000000000000000000000000000000000000000000000000000000000000000000000000000000000000000000000000
01000000110011101101101111111100110000011010011001011010010111001111000010011100011000000011110011110000100111000110000011011100
10011001011111110101101111111100000000000000000000000000000000000000000000000000000000000000000000000000000000000000000000000000
10000111011100110010101111111100000001101010000011010111110111001011010011110111001101010011110001010010101110100011010000111100
10011001011111110101101111111100000000000000000000000000000000000000000000000000000000000000000000000000000000000000000000000000
11111110100001101110101111111100101001010000110100000000110111000000011111100101010100100011110010110010001000000011100111011100
10011001011111110101101111111100000000000000000000000000000000000000000000000000000000000000000000000000000000000000000000000000
00111011110010111100101111111100111011100000000110111110110111000011111000111000010100110011110011001000100101101101100000111100
10011001011111110101101111111100000000000000000000000000000000000000000000000000000000000000000000000000000000000000000000000000
01010001000101101101101111111100110101011000001101100010010111000111000001110010001011111101110001110000011100100010111101011100
10011001011111110101101111111100000000000000000000000000000000000000000000000000000000000000000000000000000000000000000000000000
10001100110101101010101111111100100110111110110000101011110111000001111100010011110110010011110010100011110001101101100000111100
10011001011111110101101111111100000000000000000000000000000000000000000000000000000000000000000000000000000000000000000000000000
11011101101111011110101111111100101111100100010101100111010111001101110001001001011011000011110010111100110101100011000111011100
10011001011111110101101111111100000000000000000000000000000000000000000000000000000000000000000000000000000000000000000000000000
00010110100100010010101111111100000011011010000111000110110111001000001000000100011011010011110010001101101101111101000000111100
10011001011111110101101111111100000000000000000000000000000000000000000000000000000000000000000000000000000000000000000000000000
10000111011110101101101111111100011000110000010100101100010111001111100110100000011110111101110011111001101000000111101101011100
10011001011111110101101111111100000000000000000000000000000000000000000000000000000000000000000000000000000000000000000000000000
11101010000111111010101111111100100110011100010111111101110111001111000100101010001100010011110000101001100110000011000000111100
10011001011111110101101111111100000000000000000000000000000000000000000000000000000000000000000000000000000000000000000000000000
11110011000010000001101111111100100011101011001101110011010111000110111000101110001001000011110010110100001000110011111011011100
10011001011111110101101111111100000000000000000000000000000000000000000000000000000000000000000000000000000000000000000000000000
00001100101101001010101111111100111010001011001000110010110111000110011011101000001001010011110001100000100111111101111111011100
10011001011111110101101111111100000000000000000000000000000000000000000000000000000000000000000000000000000000000000000000000000
10111111101010101101101111111100010101010010111111000100010111000001011011100001100100111101110000010110111000011001001101011100
10011001011111110101101111111100000000000000000000000000000000000000000000000000000000000000000000000000000000000000000000000000
10011101111011100110101111111100100100101001000010110101110111000000010110110011001111100011110000011101111110010011111111011100
10011001011111110101101111111100000000000000000000000000000000000000000000000000000000000000000000000000000000000000000000000000
00000101110110100001101111111100100101000001000110011101010111001001100101111000001010000011110011111111000000011100011011011100
10011001011111110101101111111100000000000000000000000000000000000000000000000000000000000000000000000000000000000000000000000000
01100111000000111010101111111100101011110010000111101100110111000010110101001011110010010011110001001001001110110100011111011100
10011001011111110101101111111100000000000000000000000000000000000000000000000000000000000000000000000000000000000000000000000000
11101011101100101101101111111100001011001101010100101000010111001011100010111101011011011101110010111000101111010110110101011100
10011001011111110101101111111100000000000000000000000000000000000000000000000000000000000000000000000000000000000000000000000000
01000101010101110110101111111100000001101010110000111001110111001101101001001101110001100011110010100010011111011100011111011100
10011001011111110101101111111100000000000000000000000000000000000000000000000000000000000000000000000000000000000000000000000000
00000000111110010001101111111100111100111010000101100101010111001111101100100110101000000011110011001001001000110011001011011100
10011001011111110101101111111100000000000000000000000000000000000000000000000000000000000000000000000000000000000000000000000000
01101000011000100110101111111100100101110110011100100100110111001001000011100100101000010011110001011110111111000011001111011100
10011001011111110101101111111100000000000000000000000000000000000000000000000000000000000000000000000000000000000000000000000000
00100110011000101101101111111100110101111111010101100000010111000010100110110001101001011101110000101001101100011010010101011100
10011001011111110101101111111100000000000000000000000000000000000000000000000000000000000000000000000000000000000000000000000000
00000010010010101110101111111100100011111101111100110001110111000011100001001000101100100011110001111100010100101011001111011100
10011001011111110101101111111100000000000000000000000000000000000000000000000000000000000000000000000000000000000000000000000000
01010101110110110001101111111100101011000010000110101001010111000101101101111100000011111101110001000000011100100001110011011100
10011001011111110101101111111100000000000000000000000000000000000000000000000000000000000000000000000000000000000000000000000000
11100100011111010110101111111100010010111010110000101000110111000011010001011011111101100011110001000010010001111110110111011100
10011001011111110101101111111100000000000000000000000000000000000000000000000000000000000000000000000000000000000000000000000000
01101001111111001101101111111100101010100101101111001111100111001000110001111011101010011101110010001100011110111010100101011100
10011001011111110101101111111100000000000000000000000000000000000000000000000000000000000000000000000000000000000000000000000000
01010101111101011110101111111100000100110011011001111110110111001101000101110101000111000011110010110000111000001001110111011100
10011001011111110101101111111100000000000000000000000000000000000000000000000000000000000000000000000000000000000000000000000000
10010010010010001001101111111100111101111001001001100001010111001110010000101010000110111101110000000000110001111010010011011100
10011001011111110101101111111100000000000000000000000000000000000000000000000000000000000000000000000000000000000000000000000000
10111010010101001110101111111100010000100011110010100000110111001111110001000000000110100011110011111101110100011010010111011100
10011001011111110101101111111100000000000000000000000000000000000000000000000000000000000000000000000000000000000000000000000000
00100110100111001101101111111100010011111001100100111011100111001010111111001001111000011101110010101111110010011110000101011100
10011001011111110101101111111100000000000000000000000000000000000000000000000000000000000000000000000000000000000000000000000000
10111011110000000001101111111100001110100010000110100110110111001100111011110010011001000011110010011110011111010110010111011100
10011001011111110101101111111100000000000000000000000000000000000000000000000000000000000000000000000000000000000000000000000000
01101110110000101001101111111100000101011001001010001110010111001000000000010011010000111101110000000100111100101010100011011100
10011001011111110101101111111100000000000000000000000000000000000000000000000000000000000000000000000000000000000000000000000000
10000111110100011110101111111100111101100110100111110111010111001110011010100001010000100011110011101110000100001010100111011100
10011001011111110101101111111100000000000000000000000000000000000000000000000000000000000000000000000000000000000000000000000000
10000011110011001101101111111100010111001100111011100011100111001100101000010100101011101101110011001010000101001010111001011100
10011001011111110101101111111100000000000000000000000000000000000000000000000000000000000000000000000000000000000000000000000000
10111101111100100001101111111100111001000000000011110010110111001111100001000011101010000011110010011101111111000110100111011100
10011001011111110101101111111100000000000000000000000000000000000000000000000000000000000000000000000000000000000000000000000000
01011101111101101001101111111100111000111000101100011010010111001101111101111010111101011101110011100010110001100110000011011100
10011001011111110101101111111100000000000000000000000000000000000000000000000000000000000000000000000000000000000000000000000000
01111101110001111110101111111100010101100100111011101011010111001101101100010100111101000011110001110000010101000110000111011100
10011001011111110101101111111100000000000000000000000000000000000000000000000000000000000000000000000000000000000000000000000000
01000101011101001101101111111100111000000011110000101101100111001011001110010001101110101101110010110011100100011011101001011100
10011001011111110101101111111100000000000000000000000000000000000000000000000000000000000000000000000000000000000000000000000000
11011000001010010001101111111100100001101110010101011100110111000101001100011011011000000011110010111101011110101110000111011100
00100110110011000100101111111100100110111001001001011001001111001110111000111101100000001011110010110011011001010011010100111100
10011001011111110101101111111100000000000000000000000000000000000000000000000000000000000000000000000000000000000000000000000000
00101001111010011001101111111100001011010111101101000010010111001100101011000111101110011101110001000100010101111000111101011100
10011001011111110101101111111100000000000000000000000000000000000000000000000000000000000000000000000000000000000000000000000000
01100111010011000001101111111100001101110100001110000011010111001101101011101101101110000011110001001110101100011000111011011100
10011001011111110101101111111100000000000000000000000000000000000000000000000000000000000000000000000000000000000000000000000000
00111111100101001101101111111100010000000011001101000101100111000110001101011000000100101101110001100011010110000001001001011100
10011001011111110101101111111100000000000000000000000000000000000000000000000000000000000000000000000000000000000000000000000000
00111001100010110001101111111100111000101001100000010100110111000000000011010110010011111101110011001111100101101100111011011100
10011001011111110101101111111100000000000000000000000000000000000000000000000000000000000000000000000000000000000000000000000000
11000100010010101001010000000010011011010001111011010001001111001000011100000010010101110011110010000000001000000011100100111100
10011001011111110101101111111100000000000000000000000000000000000000000000000000000000000000000000000000000000000000000000000000
00101110110111011001101111111100001001111101010011110100010111000000111000100100011100011101110011101101001111011001101101011100
10011001011111110101101111111100000000000000000000000000000000000000000000000000000000000000000000000000000000000000000000000000
00101100010111100001101111111100011110010110001001110101010111001101110100000000011100000011110010100101100011101001101011011100
10011001011111110101101111111100000000000000000000000000000000000000000000000000000000000000000000000000000000000000000000000000
10100011101001001101101111111100010111110011111101001001100111000011001000110101001011001101110000110010001101010010110001011100
10011001011111110101101111111100000000000000000000000000000000000000000000000000000000000000000000000000000000000000000000000000
11100000100100001001101111111100011111110000011011101000110111001110011110110111100110111101110010110101011110110101101011011100
10011001011111110101101111111100000000000000000000000000000000000000000000000000000000000000000000000000000000000000000000000000
10100001011100000101010000000010011111111110000000111110001111000011111101010110110010110011110001010001110101110011000100111100
10011001011111110101101111111100000000000000000000000000000000000000000000000000000000000000000000000000000000000000000000000000
11111101110110111001101111111100010110010011111010111000010111000001101100110111111111101101110001110101100111111100001101011100
10011001011111110101101111111100000000000000000000000000000000000000000000000000000000000000000000000000000000000000000000000000
01110110010111010001101111111100011100101100001100111001010111000111101101001101111111111101110010000111001111011100001011011100
10011001011111110101101111111100000000000000000000000000000000000000000000000000000000000000000000000000000000000000000000000000
00101111100001001101101111111100101010001101010100100001100111001011001001001000110001001101110010110010010010001100010001011100
10011001011111110101101111111100000000000000000000000000000000000000000000000000000000000000000000000000000000000000000000000000
01101111010111001001101111111100001111100000101000010000110111000001111111110111110000111101110010100111100010110010001011011100
10011001011111110101101111111100000000000000000000000000000000000000000000000000000000000000000000000000000000000000000000000000
01000111000111010101010000000010011110000111100111000110001111001011111100000011011111010011110001111110000111100111111000111100
10011001011111110101101111111100000000000000000000000000000000000000000000000000000000000000000000000000000000000000000000000000
10001011000111111001101111111100111110110101100110110000010111000111001011000110011001101101110011000010110001100000110101011100
10011001011111110101101111111100000000000000000000000000000000000000000000000000000000000000000000000000000000000000000000000000
01100010001011110001101111111100101010001010000010110001010111000000001000101100011001111101110011000000010011000000110011011100
10011001011111110101101111111100000000000000000000000000000000000000000000000000000000000000000000000000000000000000000000000000
00000001011110001101101111111100011111011001011011110110100111000101010111000100110010001101110001010101110001001100100001011100
10011001011111110101101111111100000000000000000000000000000000000000000000000000000000000000000000000000000000000000000000000000
01001111111001101001101111111100010100100011111010101111010111000100011101110100000011011101110010111101100000001000110011011100
10011001011111110101101111111100000000000000000000000000000000000000000000000000000000000000000000000000000000000000000000000000
01011011010010101101010000000010110011011011111010110010001111000000001100001000001101010011110001111111101101011010011000111100
10011001011111110101101111111100000000000000000000000000000000000000000000000000000000000000000000000000000000000000000000000000
11011111010010000101101111111100000110101011010101111111100111000010110100100110111100101101110000111011100000110111100101011100
10011001011111110101101111111100000000000000000000000000000000000000000000000000000000000000000000000000000000000000000000000000
01111010000101001001101111111100001110001101110110111110010111000110000101111100111100111101110000011111100110010111100011011100
10011001011111110101101111111100000000000000000000000000000000000000000000000000000000000000000000000000000000000000000000000000
00000110110110001101101111111100011010010110111111101010100111001001110001011101001000001101110010011100010111010010000001011100
10011001011111110101101111111100000000000000000000000000000000000000000000000000000000000000000000000000000000000000000000000000
01101110000010011001101111111100000100110001000010111011010111000000111011110110011110011101110001101010110011001111100011011100
10011001011111110101101111111100000000000000000000000000000000000000000000000000000000000000000000000000000000000000000000000000
10011111101110111101010000000010111000000010111010011100001111001111100000110100110110010011110001001001101111001111001000111100
10011001011111110101101111111100000000000000000000000000000000000000000000000000000000000000000000000000000000000000000000000000
00010001010101000101101111111100100001100101000010100111100111000110000100001101010111001101110010001110110001110111000101011100
10011001011111110101101111111100000000000000000000000000000000000000000000000000000000000000000000000000000000000000000000000000
11100010111010101001101111111100100111100110001000100110010111000011000110001001010111011101110010000100110000110111000011011100
10011001011111110101101111111100000000000000000000000000000000000000000000000000000000000000000000000000000000000000000000000000
10110001000110001101101111111100111010101100001101000010100111001010111010100110111101110101110010101110101001101111011110011100
10011001011111110101101111111100000000000000000000000000000000000000000000000000000000000000000000000000000000000000000000000000
10101111001011011001101111111100110010010100000011100011010111000101110100111110011100011101110001100000010011001111000011011100
10011001011111110101101111111100000000000000000000000000000000000000000000000000000000000000000000000000000000000000000000000000
00000101110110100011010000000010010001111000101011100100001111000110110100010111110100010011110001100110100011110101110000111100
10011001011111110101101111111100000000000000000000000000000000000000000000000000000000000000000000000000000000000000000000000000
11011101111111000101101111111100110101100000000001110011100111000010100100110000000101001101110001101111010110010000000101011100
10011001011111110101101111111100000000000000000000000000000000000000000000000000000000000000000000000000000000000000000000000000
10100001100000011001101111111100001011111000011010110010010111000010111011001111111001011101110001010011000000010000000011011100
10011001011111110101101111111100000000000000000000000000000000000000000000000000000000000000000000000000000000000000000000000000
11111111101010001101101111111100111101001101100111110100100111000111011010011011111010110101110001110110100110111110101110011100
10011001011111110101101111111100000000000000000000000000000000000000000000000000000000000000000000000000000000000000000000000000
11001011101010111001101111111100111001100011010011001101010111000100111011100100000000011101110000110101011100110000000011011100
10011001011111110101101111111100000000000000000000000000000000000000000000000000000000000000000000000000000000000000000000000000
11110000101100110011010000000010010000011101011101101000001111001010011011111100001111100011110001000011111010010001010000111100
10011001011111110101101111111100000000000000000000000000000000000000000000000000000000000000000000000000000000000000000000000000
11110011010010100101101111111100110101001101001010011101100111000010011000100010111010001101110011111101111111101110011001011100
10011001011111110101101111111100000000000000000000000000000000000000000000000000000000000000000000000000000000000000000000000000
01110001111001011001101111111100000111110101001100011100010111001100000000001100111010011101110000011010101010101110011101011100
10011001011111110101101111111100000000000000000000000000000000000000000000000000000000000000000000000000000000000000000000000000
10001101110010001101101111111100101001011011001001111000100111001001001100101001010000110101110010010011001010010100001110011100
10011001011111110101101111111100000000000000000000000000000000000000000000000000000000000000000000000000000000000000000000000000
10110110110011111001101111111100011011110111001010000101010111001011111001010001011001101101110011101000011111011110011101011100
10011001011111110101101111111100000000000000000000000000000000000000000000000000000000000000000000000000000000000000000000000000
10001110110011001011010000000010011000010001100000010000001111001001010011011010110001100011110011100111010000000001100000111100
10011001011111110101101111111100000000000000000000000000000000000000000000000000000000000000000000000000000000000000000000000000
11011111110001100101101111111100110100011011010101100101100111001011010100010100000100001101110001011010110110100000101001011100
10011001011111110101101111111100000000000000000000000000000000000000000000000000000000000000000000000000000000000000000000000000
10110011100100111001101111111100111100111010001001100100010111000110010000011000000100011101110001000000100111000000101101011100
10011001011111110101101111111100000000000000000000000000000000000000000000000000000000000000000000000000000000000000000000000000
00111001100010001101101111111100001010100111010101110000100111001010111100000110111101010101110010101111000001101111010110011100
10011001011111110101101111111100000000000000000000000000000000000000000000000000000000000000000000000000000000000000000000000000
00101000011100000101101111111100000110100001110010001001010111001111011000000110111100101101110010000101010111100000101101011100
10011001011111110101101111111100000000000000000000000000000000000000000000000000000000000000000000000000000000000000000000000000
01001011111100011011010000000010110110011110011010101111110111001010111111000111001100100011110010011011000100001001000000111100
10011001011111110101101111111100000000000000000000000000000000000000000000000000000000000000000000000000000000000000000000000000
10001110110011100101101111111100001110110000111110101001100111001111100110111000101011110101110010110000111000011101110001011100
10011001011111110101101111111100000000000000000000000000000000000000000000000000000000000000000000000000000000000000000000000000
01000101000101111001101111111100001101110011100110101000010111001100101101000000101011101101110001011100110101101101110101011100
10011001011111110101101111111100000000000000000000000000000000000000000000000000000000000000000000000000000000000000000000000000
11011101111100001101101111111100111101010010100100000000100111001101100000110000011110010101110011011000001100000111100110011100
10011001011111110101101111111100000000000000000000000000000000000000000000000000000000000000000000000000000000000000000000000000
01101000011001000101101111111100001100011101110101000001010111000011001100110001010111001101110000000100111100011101110101011100
10011001011111110101101111111100000000000000000000000000000000000000000000000000000000000000000000000000000000000000000000000000
00010100110001111011010000000010001010010110110010111011110111001000001101111001000111000011110001001010011000001110111111011100
10011001011111110101101111111100000000000000000000000000000000000000000000000000000000000000000000000000000000000000000000000000
01011010100000010101101111111100011001000010011101100001100111001101001100000101001110110101110001110101111000110001010001011100
10011001011111110101101111111100000000000000000000000000000000000000000000000000000000000000000000000000000000000000000000000000
00100110001000000101101111111100111011000000010101100000010111000100100011010001001110101101110000100100100011010001010101011100
10011001011111110101101111111100000000000000000000000000000000000000000000000000000000000000000000000000000000000000000000000000
10010000011100001101101111111100110111101110110111100111000111000110001100010110011100010101110001100011000101100111000110011100
10011001011111110101101111111100000000000000000000000000000000000000000000000000000000000000000000000000000000000000000000000000
10001101110111000101101111111100011101111111101011010110010111000100110101001011111001001101110000011101011111010001010101011100
10011001011111110101101111111100000000000000000000000000000000000000000000000000000000000000000000000000000000000000000000000000
01110010011101000111010000000010010101011111101011100011110111001010101110101010011001000011110000011110101110010111101111011100
10011001011111110101101111111100000000000000000000000000000000000000000000000000000000000000000000000000000000000000000000000000
00000111101100010101101111111100001000001110110101001110100111000001010110101001011000110101110000000000000101111110100001011100
10011001011111110101101111111100000000000000000000000000000000000000000000000000000000000000000000000000000000000000000000000000
01000110101110000101101111111100101100001001001001001111100111001101000000100001011000101101110001111101101010111110100101011100
10011001011111110101101111111100000000000000000000000000000000000000000000000000000000000000000000000000000000000000000000000000
10000001001100001101101111111100010001011100001100001011000111000010100110110010000000010101110000101001101100100000000110011100
10011001011111110101101111111100000000000000000000000000000000000000000000000000000000000000000000000000000000000000000000000000
11100100111100100101101111111100010111111000011111001010010111001110000111011111011010001101110000001011010010111110100101011100
10011001011111110101101111111100000000000000000000000000000000000000000000000000000000000000000000000000000000000000000000000000
01001000010011100111010000000010010111111001010111001101110111001100011000011011101010000011110001000100111010010001001111011100
10011001011111110101101111111100000000000000000000000000000000000000000000000000000000000000000000000000000000000000000000000000
10100100100110010101101111111100110001001111101001011010100111001111101110111101010011010101110011101000000111010001000001011100
10011001011111110101101111111100000000000000000000000000000000000000000000000000000000000000000000000000000000000000000000000000
00000111110011000101101111111100100001000110000001011011100111001001100111110101010011001101110001110010100101010001000101011100
10011001011111110101101111111100000000000000000000000000000000000000000000000000000000000000000000000000000000000000000000000000
00000100110100001101101111111100110110010000100000111101000111001100001110010100111001100101110011000011100101001110011010011100
10011001011111110101101111111100000000000000000000000000000000000000000000000000000000000000000000000000000000000000000000000000
11010101000001100101101111111100110111001101110101111100010111000010101001101011111000001101110001010110010110010001000101011100
10011001011111110101101111111100000000000000000000000000000000000000000000000000000000000000000000000000000000000000000000000000
01010100111101010111010000000010001101011000011110000101110111001011100001011111011000000011110000010000100111010010110111011100
10011001011111110101101111111100000000000000000000000000000000000000000000000000000000000000000000000000000000000000000000000000
01010010110001010101101111111100110100000101111000100010100111000011001010000111000001010101110001000101100110000110111110011100
10011001011111110101101111111100000000000000000000000000000000000000000000000000000000000000000000000000000000000000000000000000
01000100000100100101101111111100101111111000110000100011100111001101110110101011000001001101110001110101100000000110111001011100
10011001011111110101101111111100000000000000000000000000000000000000000000000000000000000000000000000000000000000000000000000000
01000111100100001101101111111100100100110110011010010101000111001110000010011100000010100101110011100000100111000000101010011100
10011001011111110101101111111100000000000000000000000000000000000000000000000000000000000000000000000000000000000000000000000000
10001110000011100101101111111100001101000000110111010100010111000111001001110110001011110101110001010000110010111010111001011100
10011001011111110101101111111100000000000000000000000000000000000000000000000000000000000000000000000000000000000000000000000000
01011100011001110111010000000010010010011110101110001001110111001111100110100100110011111101110000010100011100110100010111011100
10011001011111110101101111111100000000000000000000000000000000000000000000000000000000000000000000000000000000000000000000000000
11010110001101010101101111111100011010100001001100001100100111001011101010110011000010010101110001010101011111101011101110011100
10011001011111110101101111111100000000000000000000000000000000000000000000000000000000000000000000000000000000000000000000000000
00111010010110100101101111111100100000000111000100001101100111000011111111000011000010001101110001000010110101101011101001011100
10011001011111110101101111111100000000000000000000000000000000000000000000000000000000000000000000000000000000000000000000000000
11000011000100001101101111111100110111011100100100011001000111001111011101010001110111000101110011110111010100011101110010011100
10011001011111110101101111111100000000000000000000000000000000000000000000000000000000000000000000000000000000000000000000000000
11000101011111100101101111111100001101001101000101011000010111000011100010110111110110110101110000111100100011001011101001011100
10011001011111110101101111111100000000000000000000000000000000000000000000000000000000000000000000000000000000000000000000000000
10011011111010001111010000000010010100110000011011000001110111000111100000111111010110111101110000100110011001010100100111011100
10011001011111110101101111111100000000000000000000000000000000000000000000000000000000000000000000000000000000000000000000000000
01000101001011010101101111111100101110001000100011111000100111001010000100101010010000010101110010111010100110101110001110011100
10011001011111110101101111111100000000000000000000000000000000000000000000000000000000000000000000000000000000000000000000000000
01100011010101100101101111111100110001111000011101111001100111001011011100110010010000001101110010100101100100101110001001011100
10011001011111110101101111111100000000000000000000000000000000000000000000000000000000000000000000000000000000000000000000000000
00000011111000001101101111111100011011011001011010010001000111000001001011100111000101000101110000010010111001110001010010011100
10011001011111110101101111111100000000000000000000000000000000000000000000000000000000000000000000000000000000000000000000000000
00110110110100010101101111111100011001111101100011010000010111000000001001000111101000110101110010001110000100001110001001011100
10011001011111110101101111111100000000000000000000000000000000000000000000000000000000000000000000000000000000000000000000000000
01001001001000101111010000000010001100110011010100110110110111000100001110101100101000111101110001001000011010000010000111011100
10011001011111110101101111111100000000000000000000000000000000000000000000000000000000000000000000000000000000000000000000000000
00010000001111010101101111111100101000101000010011110000100111000001000111011001010101100101110000001011010101101100110110011100
10011001011111110101101111111100000000000000000000000000000000000000000000000000000000000000000000000000000000000000000000000000
11010001100111100101101111111100100100001101111101110001100111001110110011110001010101110101110010101000011110101100110001011100
10011001011111110101101111111100000000000000000000000000000000000000000000000000000000000000000000000000000000000000000000000000
11101011011000001101101111111100000001010111111011101110000111001101010011011000000110000101110011010100110110000001100010011100
10011001011111110101101111111100000000000000000000000000000000000000000000000000000000000000000000000000000000000000000000000000
01110111011010010101101111111100111010011011011001011111100111001101100001110000010011010101110011000111000110001100110001011100
10011001011111110101101111111100000000000000000000000000000000000000000000000000000000000000000000000000000000000000000000000000
00111011001101101111010000000010110101000101010010101010110111000000101101101001100011011101110011100010110101111011011011011100
10011001011111110101101111111100000000000000000000000000000000000000000000000000000000000000000000000000000000000000000000000000
00001101010000110101101111111100000101110101001100000000100111001111001000010100110010100101110011111010010111101000010110011100
10011001011111110101101111111100000000000000000000000000000000000000000000000000000000000000000000000000000000000000000000000000
11101011011000010101101111111100010011111101010100000001100111000010101001111000110010110101110011110000000011101000010001011100
10011001011111110101101111111100000000000000000000000000000000000000000000000000000000000000000000000000000000000000000000000000
10100000011000001101101111111100100110000111101101111010000111000100000100011111000100000101110001000001000111110001000010011100
10011001011111110101101111111100000000000000000000000000000000000000000000000000000000000000000000000000000000000000000000000000
10010010100001010101101111111100110000101001011010000111100111000011000111101100000001010101110010010010100101001000010001011100
10011001011111110101101111111100000000000000000000000000000000000000000000000000000000000000000000000000000000000000000000000000
11100100100010011111010000000010111011011001111111111100110111001011001010010111111110011101110000000001010000100110101011011100
10011001011111110101101111111100000000000000000000000000000000000000000000000000000000000000000000000000000000000000000000000000
10110101000100110101101111111100110010011001001111100111000111001100011100110000011111000101110001110000101010101000100110011100
10011001011111110101101111111100000000000000000000000000000000000000000000000000000000000000000000000000000000000000000000000000
11110011010010010101101111111100100011101110100111100110100111001011001100100000011111010101110000101101001100101000100001011100
10011001011111110101101111111100000000000000000000000000000000000000000000000000000000000000000000000000000000000000000000000000
00010010101000001101101111111100110100000111010100010010000111001110001011010101011011111001110011100010110101010110111100011100
10011001011111110101101111111100000000000000000000000000000000000000000000000000000000000000000000000000000000000000000000000000
00111001010101010101101111111100001110000010011101010011100111000011110011010100000010010101110011111000011000001000100001011100
10011001011111110101101111111100000000000000000000000000000000000000000000000000000000000000000000000000000000000000000000000000
01011011100011011111010000000010110111101000011100110100110111001100011000111111111100011101110011010111000011110000001011011100
10011001011111110101101111111100000000000000000000000000000000000000000000000000000000000000000000000000000000000000000000000000
01001000011100110101101111111100110011011100100100001011000111000100011010110000110101000101110001011111001100110100000110011100
10011001011111110101101111111100000000000000000000000000000000000000000000000000000000000000000000000000000000000000000000000000
10101001101110010101101111111100010110001101011000001010100111000010101101100000110101010101110001101100011000110100000001011100
10011001011111110101101111111100000000000000000000000000000000000000000000000000000000000000000000000000000000000000000000000000
01111001001000001101101111111100011001001000110100101100000111001100001110011000011110111001110011000011100110000111101100011100
10011001011111110101101111111100000000000000000000000000000000000000000000000000000000000000000000000000000000000000000000000000
10000000110011010101101111111100101011100111100101101101100111000101000011011101100000010101110010111000100000010100000001011100
10011001011111110101101111111100000000000000000000000000000000000000000000000000000000000000000000000000000000000000000000000000
10110010111100111111010000000010001100001011010111011000110111001001111111000101100000011101110000111011110111011011010011011100
10011001011111110101101111111100000000000000000000000000000000000000000000000000000000000000000000000000000000000000000000000000
00110111010010110101101111111100010010011000110111011101000111001100011111001111100110000101110001100101100011101101011010011100
10011001011111110101101111111100000000000000000000000000000000000000000000000000000000000000000000000000000000000000000000000000
00010010111001010101101111111100010011010000100111011100100111000010100101110111100110010101110000001101011001101101011110011100
10011001011111110101101111111100000000000000000000000000000000000000000000000000000000000000000000000000000000000000000000000000
00100000001000001101101111111100111000000000110101000100000111001100011000011111111000111001110011000110000111111110001100011100
10011001011111110101101111111100000000000000000000000000000000000000000000000000000000000000000000000000000000000000000000000000
11110001010111010101101111111100100011110111101000100101100111001010000011011110100101100101110000110010100001110101011110011100
10011001011111110101101111111100000000000000000000000000000000000000000000000000000000000000000000000000000000000000000000000000
00101011100101111111010000000010001111110011010000110000110111001011011000001110100101101101110000100010011101100011100011011100
10011001011111110101101111111100000000000000000000000000000000000000000000000000000000000000000000000000000000000000000000000000
01010010111010110101101111111100100010101110011100010101000111000111101111110001010100000101110010011011011001111100101010011100
10011001011111110101101111111100000000000000000000000000000000000000000000000000000000000000000000000000000000000000000000000000
01000000000011010101101111111100010011010011001100010100100111001000100111010001010100010101110010011111101110111100101110011100
10011001011111110101101111111100000000000000000000000000000000000000000000000000000000000000000000000000000000000000000000000000
01011110110000001101101111111100000101010001111001001000000111000001010110010000001011011001110000010101100100000010110100011100
10011001011111110101101111111100000000000000000000000000000000000000000000000000000000000000000000000000000000000000000000000000
00111010100000110101101111111100100101111000111111001001100111000100001101011000010010100101110001111001011110101100101110011100
10011001011111110101101111111100000000000000000000000000000000000000000000000000000000000000000000000000000000000000000000000000
01101101100000000000110000000010001001110011011000111111010111000010001001010100010010101101110010101100000110110011000011011100
10011001011111110101101111111100000000000000000000000000000000000000000000000000000000000000000000000000000000000000000000000000
00011100110110110101101111111100110110001111111111101001000111000100001011010110100111111001110011111001011011010111110010011100
10011001011111110101101111111100000000000000000000000000000000000000000000000000000000000000000000000000000000000000000000000000
10111011111011010101101111111100101100011001011111101000100111001001001000100110100111100101110001110110111101010111110110011100
10011001011111110101101111111100000000000000000000000000000000000000000000000000000000000000000000000000000000000000000000000000
10111111010000001101101111111100001110111011101111000000000111000111000001101000010001011001110001110000011010000100010100011100
10011001011111110101101111111100000000000000000000000000000000000000000000000000000000000000000000000000000000000000000000000000
11011110111000110101101111111100011010110001010010100001100111001110001001001000101111000101110000100111011011000111110110011100
10011001011111110101101111111100000000000000000000000000000000000000000000000000000000000000000000000000000000000000000000000000
01011100111010000000110000000010001001101010001011000111010111001010000100101100101111001101110011111101001110011011111101011100
10011001011111110101101111111100000000000000000000000000000000000000000000000000000000000000000000000000000000000000000000000000
01000011011110110101101111111100010100010001001100010001000111000001010111011110000001111001110001011101001001011101010010011100
10011001011111110101101111111100000000000000000000000000000000000000000000000000000000000000000000000000000000000000000000000000
00001111011111010101101111111100101010001110110100010000100111000100000001101110000001100101110011100111011110011101010110011100
10011001011111110101101111111100000000000000000000000000000000000000000000000000000000000000000000000000000000000000000000000000
10110001010000001101101111111100111111011011011010110111111011000110111011010111100010011001110001101110110101111000100100011100
10011001011111110101101111111100000000000000000000000000000000000000000000000000000000000000000000000000000000000000000000000000
10111111001100110101101111111100010101011100110111110110100111000101101010100100010101000101110001000101101101001101010110011100
10011001011111110101101111111100000000000000000000000000000000000000000000000000000000000000000000000000000000000000000000000000
11101001010101000000110000000010010100011011100100110011010111000101100100101010010101001101110010111010110010100010011101011100
10011001011111110101101111111100000000000000000000000000000000000000000000000000000000000000000000000000000000000000000000000000
10001111100001110101101111111100011101000000110001101110000111001000010001010000010100111001110000101111010111100101100010011100
10011001011111110101101111111100000000000000000000000000000000000000000000000000000000000000000000000000000000000000000000000000
10110010101000110101101111111100111001111100100001101111000111001011000110100000010100100101110000111100011011100101100110011100
10011001011111110101101111111100000000000000000000000000000000000000000000000000000000000000000000000000000000000000000000000000
00010100010000001101101111111100111100111011110110101011111011000101010100111010110000011001110001010101001110101100000100011100
10011001011111110101101111111100000000000000000000000000000000000000000000000000000000000000000000000000000000000000000000000000
11001111100010110101101111111100111010100111110111101010100111000000101110111000100110000101110001010110001100000101100110011100
10011001011111110101101111111100000000000000000000000000000000000000000000000000000000000000000000000000000000000000000000000000
10010000001111000000110000000010011101000110110000011101010111001010010110101010100110001101110001110101101100011011001101011100
10011001011111110101101111111100000000000000000000000000000000000000000000000000000000000000000000000000000000000000000000000000
11110011001001110101101111111100011111001011000110111010000111001101011101101011101011011001110000000001000100001101000010011100
10011001011111110101101111111100000000000000000000000000000000000000000000000000000000000000000000000000000000000000000000000000
00010000110100110101101111111100000110100110111010111011000111000110110011001011101011000101110010110101001000001101000110011100
10011001011111110101101111111100000000000000000000000000000000000000000000000000000000000000000000000000000000000000000000000000
10110011100000001101101111111100111100011001011000000011111011001010001110000001001101101001110010100011100000010011011000011100
10011001011111110101101111111100000000000000000000000000000000000000000000000000000000000000000000000000000000000000000000000000
01000010011101010101101111111100100000010010100001000011100111001011101001011101100100010101110000110111011100010101000001011100
10011001011111110101101111111100000000000000000000000000000000000000000000000000000000000000000000000000000000000000000000000000
00010111100101100000110000000010010010110111110000110010010111000100010010111111110011010101110001111110000010110110011001011100
10011001011111110101101111111100000000000000000000000000000000000000000000000000000000000000000000000000000000000000000000000000
11110100000010110101101111111100001000010100101011100011000111001000100001000101110001000101110000011111111011000101111010011100
10011001011111110101101111111100000000000000000000000000000000000000000000000000000000000000000000000000000000000000000000000000
10011001011111110101101111111100000000000000000000000000000000000000000000000000000000000000000000000000000000000000000000000000
00010111111001110101101111111100011011110011001010011010000111001101101101111100101011011001110010010101000101111101000010011100
11101011010011111100001011111100010011101001011110010101011111001010011011110110100100001111110000101111100010010010110101111100
10011001011111110101101111111100000000000000000000000000000000000000000000000000000000000000000000000000000000000000000000000000
00011010100110110000110000000010000000000000000000000000000000000000000000000000000000000000000000000000000000000000000000000000
10011001011111110101101111111100000000000000000000000000000000000000000000000000000000000000000000000000000000000000000000000000
00011010100110110000110000000010000000000000000000000000000000000000000000000000000000000000000000000000000000000000000000000000
10011001011111110101101111111100000000000000000000000000000000000000000000000000000000000000000000000000000000000000000000000000
00100010101110100000110000000010101001001111001010100001010111001111011110101010110000001101110001100101101000101101100101011100
10100000100000111100110011111100001111000111111100110101011111001110100101110111000100001111110001111110111001101110110101111100
10011001011111110101101111111100000000000000000000000000000000000000000000000000000000000000000000000000000000000000000000000000
00011010100110110000110000000010000000000000000000000000000000000000000000000000000000000000000000000000000000000000000000000000
01101000100001110101101111111100001011000111110001101101100111000011011110011001000010111001110011111000110100100001101110011100
10011001111111010000110000000010110011011011101000010110100111001011001110100000011000111001110000000001101000100100000110011100
11001111111001110101101111111100000110010001010101011101100111000100111010100011001011001001110001111100010101100110000110011100
10010001010000110000110000000010111111001010110011000100100111001100000001000111001101011001110011011010111011011110001010011100
10011001011111110101101111111100000000000000000000000000000000000000000000000000000000000000000000000000000000000000000000000000
00011010100110110000110000000010000000000000000000000000000000000000000000000000000000000000000000000000000000000000000000000000
10011001011111110101101111111100000000000000000000000000000000000000000000000000000000000000000000000000000000000000000000000000
00011010100110110000110000000010000000000000000000000000000000000000000000000000000000000000000000000000000000000000000000000000
10011001011111110101101111111100000000000000000000000000000000000000000000000000000000000000000000000000000000000000000000000000
00011010100110110000110000000010000000000000000000000000000000000000000000000000000000000000000000000000000000000000000000000000
10011001011111110101101111111100000000000000000000000000000000000000000000000000000000000000000000000000000000000000000000000000
00011010100110110000110000000010000000000000000000000000000000000000000000000000000000000000000000000000000000000000000000000000
10011001011111110101101111111100000000000000000000000000000000000000000000000000000000000000000000000000000000000000000000000000
00011010100110110000110000000010000000000000000000000000000000000000000000000000000000000000000000000000000000000000000000000000
10011001011111110101101111111100000000000000000000000000000000000000000000000000000000000000000000000000000000000000000000000000
00011010100110110000110000000010000000000000000000000000000000000000000000000000000000000000000000000000000000000000000000000000
10011001011111110101101111111100000000000000000000000000000000000000000000000000000000000000000000000000000000000000000000000000
00011010100110110000110000000010000000000000000000000000000000000000000000000000000000000000000000000000000000000000000000000000
10011001011111110101101111111100000000000000000000000000000000000000000000000000000000000000000000000000000000000000000000000000
00011010100110110000110000000010000000000000000000000000000000000000000000000000000000000000000000000000000000000000000000000000
10011001011111110101101111111100000000000000000000000000000000000000000000000000000000000000000000000000000000000000000000000000
00011010100110110000110000000010000000000000000000000000000000000000000000000000000000000000000000000000000000000000000000000000
10011001011111110101101111111100000000000000000000000000000000000000000000000000000000000000000000000000000000000000000000000000
00011010100110110000110000000010000000000000000000000000000000000000000000000000000000000000000000000000000000000000000000000000
10011001011111110101101111111100000000000000000000000000000000000000000000000000000000000000000000000000000000000000000000000000
00011010100110110000110000000010000000000000000000000000000000000000000000000000000000000000000000000000000000000000000000000000
10011001011111110101101111111100000000000000000000000000000000000000000000000000000000000000000000000000000000000000000000000000
00011010100110110000110000000010000000000000000000000000000000000000000000000000000000000000000000000000000000000000000000000000
10011001011111110101101111111100000000000000000000000000000000000000000000000000000000000000000000000000000000000000000000000000
00011010100110110000110000000010000000000000000000000000000000000000000000000000000000000000000000000000000000000000000000000000
10011001011111110101101111111100000000000000000000000000000000000000000000000000000000000000000000000000000000000000000000000000
00011010100110110000110000000010000000000000000000000000000000000000000000000000000000000000000000000000000000000000000000000000
10011001011111110101101111111100000000000000000000000000000000000000000000000000000000000000000000000000000000000000000000000000
00011010100110110000110000000010000000000000000000000000000000000000000000000000000000000000000000000000000000000000000000000000
10011001011111110101101111111100000000000000000000000000000000000000000000000000000000000000000000000000000000000000000000000000
00011010100110110000110000000010000000000000000000000000000000000000000000000000000000000000000000000000000000000000000000000000
10011001011111110101101111111100000000000000000000000000000000000000000000000000000000000000000000000000000000000000000000000000
00011010100110110000110000000010000000000000000000000000000000000000000000000000000000000000000000000000000000000000000000000000
10011001011111110101101111111100000000000000000000000000000000000000000000000000000000000000000000000000000000000000000000000000
00011010100110110000110000000010000000000000000000000000000000000000000000000000000000000000000000000000000000000000000000000000
10011001011111110101101111111100000000000000000000000000000000000000000000000000000000000000000000000000000000000000000000000000
00011010100110110000110000000010000000000000000000000000000000000000000000000000000000000000000000000000000000000000000000000000
10011001011111110101101111111100000000000000000000000000000000000000000000000000000000000000000000000000000000000000000000000000
00011010100110110000110000000010000000000000000000000000000000000000000000000000000000000000000000000000000000000000000000000000
10011001011111110101101111111100000000000000000000000000000000000000000000000000000000000000000000000000000000000000000000000000
00011010100110110000110000000010000000000000000000000000000000000000000000000000000000000000000000000000000000000000000000000000
10011001011111110101101111111100000000000000000000000000000000000000000000000000000000000000000000000000000000000000000000000000
00011010100110110000110000000010000000000000000000000000000000000000000000000000000000000000000000000000000000000000000000000000
10011001011111110101101111111100000000000000000000000000000000000000000000000000000000000000000000000000000000000000000000000000
00011010100110110000110000000010000000000000000000000000000000000000000000000000000000000000000000000000000000000000000000000000
10011001011111110101101111111100000000000000000000000000000000000000000000000000000000000000000000000000000000000000000000000000
00011010100110110000110000000010000000000000000000000000000000000000000000000000000000000000000000000000000000000000000000000000
10011001011111110101101111111100000000000000000000000000000000000000000000000000000000000000000000000000000000000000000000000000
00011010100110110000110000000010000000000000000000000000000000000000000000000000000000000000000000000000000000000000000000000000
10011001011111110101101111111100000000000000000000000000000000000000000000000000000000000000000000000000000000000000000000000000
00011010100110110000110000000010000000000000000000000000000000000000000000000000000000000000000000000000000000000000000000000000
10011001011111110101101111111100000000000000000000000000000000000000000000000000000000000000000000000000000000000000000000000000
00011010100110110000110000000010000000000000000000000000000000000000000000000000000000000000000000000000000000000000000000000000
10011001011111110101101111111100000000000000000000000000000000000000000000000000000000000000000000000000000000000000000000000000
00011010100110110000110000000010000000000000000000000000000000000000000000000000000000000000000000000000000000000000000000000000
10011001011111110101101111111100000000000000000000000000000000000000000000000000000000000000000000000000000000000000000000000000
00011010100110110000110000000010000000000000000000000000000000000000000000000000000000000000000000000000000000000000000000000000
10011001011111110101101111111100000000000000000000000000000000000000000000000000000000000000000000000000000000000000000000000000
00011010100110110000110000000010000000000000000000000000000000000000000000000000000000000000000000000000000000000000000000000000
10011001011111110101101111111100000000000000000000000000000000000000000000000000000000000000000000000000000000000000000000000000
00011010100110110000110000000010000000000000000000000000000000000000000000000000000000000000000000000000000000000000000000000000
10011001011111110101101111111100000000000000000000000000000000000000000000000000000000000000000000000000000000000000000000000000
00011010100110110000110000000010000000000000000000000000000000000000000000000000000000000000000000000000000000000000000000000000
10011001011111110101101111111100000000000000000000000000000000000000000000000000000000000000000000000000000000000000000000000000
00011010100110110000110000000010000000000000000000000000000000000000000000000000000000000000000000000000000000000000000000000000
10011001011111110101101111111100000000000000000000000000000000000000000000000000000000000000000000000000000000000000000000000000
00011010100110110000110000000010000000000000000000000000000000000000000000000000000000000000000000000000000000000000000000000000
10011001011111110101101111111100000000000000000000000000000000000000000000000000000000000000000000000000000000000000000000000000
00011010100110110000110000000010000000000000000000000000000000000000000000000000000000000000000000000000000000000000000000000000
10011001011111110101101111111100000000000000000000000000000000000000000000000000000000000000000000000000000000000000000000000000
00011010100110110000110000000010000000000000000000000000000000000000000000000000000000000000000000000000000000000000000000000000
10011001011111110101101111111100000000000000000000000000000000000000000000000000000000000000000000000000000000000000000000000000
00011010100110110000110000000010000000000000000000000000000000000000000000000000000000000000000000000000000000000000000000000000
10011001011111110101101111111100000000000000000000000000000000000000000000000000000000000000000000000000000000000000000000000000
00011010100110110000110000000010000000000000000000000000000000000000000000000000000000000000000000000000000000000000000000000000
10011001011111110101101111111100000000000000000000000000000000000000000000000000000000000000000000000000000000000000000000000000
00011010100110110000110000000010000000000000000000000000000000000000000000000000000000000000000000000000000000000000000000000000
10011001011111110101101111111100000000000000000000000000000000000000000000000000000000000000000000000000000000000000000000000000
00011010100110110000110000000010000000000000000000000000000000000000000000000000000000000000000000000000000000000000000000000000
10011001011111110101101111111100000000000000000000000000000000000000000000000000000000000000000000000000000000000000000000000000
00011010100110110000110000000010000000000000000000000000000000000000000000000000000000000000000000000000000000000000000000000000
10011001011111110101101111111100000000000000000000000000000000000000000000000000000000000000000000000000000000000000000000000000
00011010100110110000110000000010000000000000000000000000000000000000000000000000000000000000000000000000000000000000000000000000
10011001011111110101101111111100000000000000000000000000000000000000000000000000000000000000000000000000000000000000000000000000
00011010100110110000110000000010000000000000000000000000000000000000000000000000000000000000000000000000000000000000000000000000
10011001011111110101101111111100000000000000000000000000000000000000000000000000000000000000000000000000000000000000000000000000
00011010100110110000110000000010000000000000000000000000000000000000000000000000000000000000000000000000000000000000000000000000
10011001011111110101101111111100000000000000000000000000000000000000000000000000000000000000000000000000000000000000000000000000
00011010100110110000110000000010000000000000000000000000000000000000000000000000000000000000000000000000000000000000000000000000
10011001011111110101101111111100000000000000000000000000000000000000000000000000000000000000000000000000000000000000000000000000
00011010100110110000110000000010000000000000000000000000000000000000000000000000000000000000000000000000000000000000000000000000
10011001011111110101101111111100000000000000000000000000000000000000000000000000000000000000000000000000000000000000000000000000
00011010100110110000110000000010000000000000000000000000000000000000000000000000000000000000000000000000000000000000000000000000
10011001011111110101101111111100000000000000000000000000000000000000000000000000000000000000000000000000000000000000000000000000
00011010100110110000110000000010000000000000000000000000000000000000000000000000000000000000000000000000000000000000000000000000
10011001011111110101101111111100000000000000000000000000000000000000000000000000000000000000000000000000000000000000000000000000
00011010100110110000110000000010000000000000000000000000000000000000000000000000000000000000000000000000000000000000000000000000
10011001011111110101101111111100000000000000000000000000000000000000000000000000000000000000000000000000000000000000000000000000
00011010100110110000110000000010000000000000000000000000000000000000000000000000000000000000000000000000000000000000000000000000
10011001011111110101101111111100000000000000000000000000000000000000000000000000000000000000000000000000000000000000000000000000
00011010100110110000110000000010000000000000000000000000000000000000000000000000000000000000000000000000000000000000000000000000
10011001011111110101101111111100000000000000000000000000000000000000000000000000000000000000000000000000000000000000000000000000
00011010100110110000110000000010000000000000000000000000000000000000000000000000000000000000000000000000000000000000000000000000
10011001011111110101101111111100000000000000000000000000000000000000000000000000000000000000000000000000000000000000000000000000
00011010100110110000110000000010000000000000000000000000000000000000000000000000000000000000000000000000000000000000000000000000
10011001011111110101101111111100000000000000000000000000000000000000000000000000000000000000000000000000000000000000000000000000
00011010100110110000110000000010000000000000000000000000000000000000000000000000000000000000000000000000000000000000000000000000
10011001011111110101101111111100000000000000000000000000000000000000000000000000000000000000000000000000000000000000000000000000
00011010100110110000110000000010000000000000000000000000000000000000000000000000000000000000000000000000000000000000000000000000
10011001011111110101101111111100000000000000000000000000000000000000000000000000000000000000000000000000000000000000000000000000
00011010100110110000110000000010000000000000000000000000000000000000000000000000000000000000000000000000000000000000000000000000
10011001011111110101101111111100000000000000000000000000000000000000000000000000000000000000000000000000000000000000000000000000
00011010100110110000110000000010000000000000000000000000000000000000000000000000000000000000000000000000000000000000000000000000
10011001011111110101101111111100000000000000000000000000000000000000000000000000000000000000000000000000000000000000000000000000
00011010100110110000110000000010000000000000000000000000000000000000000000000000000000000000000000000000000000000000000000000000
10011001011111110101101111111100000000000000000000000000000000000000000000000000000000000000000000000000000000000000000000000000
00011010100110110000110000000010000000000000000000000000000000000000000000000000000000000000000000000000000000000000000000000000
10011001011111110101101111111100000000000000000000000000000000000000000000000000000000000000000000000000000000000000000000000000
00011010100110110000110000000010000000000000000000000000000000000000000000000000000000000000000000000000000000000000000000000000
10011001011111110101101111111100000000000000000000000000000000000000000000000000000000000000000000000000000000000000000000000000
00011010100110110000110000000010000000000000000000000000000000000000000000000000000000000000000000000000000000000000000000000000
10011001011111110101101111111100000000000000000000000000000000000000000000000000000000000000000000000000000000000000000000000000
00011010100110110000110000000010000000000000000000000000000000000000000000000000000000000000000000000000000000000000000000000000
10011001011111110101101111111100000000000000000000000000000000000000000000000000000000000000000000000000000000000000000000000000
00011010100110110000110000000010000000000000000000000000000000000000000000000000000000000000000000000000000000000000000000000000
10011001011111110101101111111100000000000000000000000000000000000000000000000000000000000000000000000000000000000000000000000000
00011010100110110000110000000010000000000000000000000000000000000000000000000000000000000000000000000000000000000000000000000000
10011001011111110101101111111100000000000000000000000000000000000000000000000000000000000000000000000000000000000000000000000000
00011010100110110000110000000010000000000000000000000000000000000000000000000000000000000000000000000000000000000000000000000000
10011001011111110101101111111100000000000000000000000000000000000000000000000000000000000000000000000000000000000000000000000000
00011010100110110000110000000010000000000000000000000000000000000000000000000000000000000000000000000000000000000000000000000000
10011001011111110101101111111100000000000000000000000000000000000000000000000000000000000000000000000000000000000000000000000000
00011010100110110000110000000010000000000000000000000000000000000000000000000000000000000000000000000000000000000000000000000000
10011001011111110101101111111100000000000000000000000000000000000000000000000000000000000000000000000000000000000000000000000000
00011010100110110000110000000010000000000000000000000000000000000000000000000000000000000000000000000000000000000000000000000000
10011001011111110101101111111100000000000000000000000000000000000000000000000000000000000000000000000000000000000000000000000000
00011010100110110000110000000010000000000000000000000000000000000000000000000000000000000000000000000000000000000000000000000000
10011001011111110101101111111100000000000000000000000000000000000000000000000000000000000000000000000000000000000000000000000000
00011010100110110000110000000010000000000000000000000000000000000000000000000000000000000000000000000000000000000000000000000000
10011001011111110101101111111100000000000000000000000000000000000000000000000000000000000000000000000000000000000000000000000000
00011010100110110000110000000010000000000000000000000000000000000000000000000000000000000000000000000000000000000000000000000000
10011001011111110101101111111100000000000000000000000000000000000000000000000000000000000000000000000000000000000000000000000000
00011010100110110000110000000010000000000000000000000000000000000000000000000000000000000000000000000000000000000000000000000000
10011001011111110101101111111100000000000000000000000000000000000000000000000000000000000000000000000000000000000000000000000000
00011010100110110000110000000010000000000000000000000000000000000000000000000000000000000000000000000000000000000000000000000000
10011001011111110101101111111100000000000000000000000000000000000000000000000000000000000000000000000000000000000000000000000000
00011010100110110000110000000010000000000000000000000000000000000000000000000000000000000000000000000000000000000000000000000000
10011001011111110101101111111100000000000000000000000000000000000000000000000000000000000000000000000000000000000000000000000000
00011010100110110000110000000010000000000000000000000000000000000000000000000000000000000000000000000000000000000000000000000000
10011001011111110101101111111100000000000000000000000000000000000000000000000000000000000000000000000000000000000000000000000000
00011010100110110000110000000010000000000000000000000000000000000000000000000000000000000000000000000000000000000000000000000000
10011001011111110101101111111100000000000000000000000000000000000000000000000000000000000000000000000000000000000000000000000000
00011010100110110000110000000010000000000000000000000000000000000000000000000000000000000000000000000000000000000000000000000000
10011001011111110101101111111100000000000000000000000000000000000000000000000000000000000000000000000000000000000000000000000000
00011010100110110000110000000010000000000000000000000000000000000000000000000000000000000000000000000000000000000000000000000000
10011001011111110101101111111100000000000000000000000000000000000000000000000000000000000000000000000000000000000000000000000000
00011010100110110000110000000010000000000000000000000000000000000000000000000000000000000000000000000000000000000000000000000000
10011001011111110101101111111100000000000000000000000000000000000000000000000000000000000000000000000000000000000000000000000000
00011010100110110000110000000010000000000000000000000000000000000000000000000000000000000000000000000000000000000000000000000000
10011001011111110101101111111100000000000000000000000000000000000000000000000000000000000000000000000000000000000000000000000000
00011010100110110000110000000010000000000000000000000000000000000000000000000000000000000000000000000000000000000000000000000000
10011001011111110101101111111100000000000000000000000000000000000000000000000000000000000000000000000000000000000000000000000000
00011010100110110000110000000010000000000000000000000000000000000000000000000000000000000000000000000000000000000000000000000000
10011001011111110101101111111100000000000000000000000000000000000000000000000000000000000000000000000000000000000000000000000000
01000101000000000110110011111100011001011101100111001101011111001011111101010000111000001111110010111110100110110101110101111100
