0011111010110011000001010010111100111110101000110111111000100001001111101100011101000001010010110011110111010011001001110101011000111101110100011001110100101110001111100100011111110101100011100011111010100011001101000111011000111111000101000000011101000001001111101110001011010011010001110011111001011010010111011110111100111110010011111001111000111111
0011111010110000011011010110111100111110011111011000010001100011001111101100101110111010100110100011111001011000111011001100000000111101101101000111010010001100001111100100011111000101000110010011111010011011000000000100000100111111000100010111111011101100001111101101000110110101011111010011111001010100010000001010111000111110100001101100001011011001
0011111010100010000100010000011100111110100000101100011100000011001111101011110000001110000010100011111000001110001101110001101100111101101101101100111010001000001111100100011100111001101000010011111010100110000111010110001100111111000000110010101101000000001111101101110110011000001111100011111000111010001010011010110100111110100000111101111011010001
0011111010001101011110100100001000111110011000100111111011100100001111101011011010011111011000100011111001100101011110010111001000111101100110000100101011100111001111100111000110101010010001010011111010111110101010011101111100111110111111101011110101110000001111101101011101010101111111000011111000101100001111111100100000111110100000001011110101110000
0011111010011100101111110010001100111110011011011110011000101100001111101100000110101111100101010011110111000111010010100110010100111101101110100011110000010001001111100011011001110110101110100011111010000110011000010110111100111110111100001100010000101100001111101110101011101011110011100011111001001001100111111001001000111110101000101111010011011001
0011111010001011110100010001001100111110011000010101101110111001001111101011010101000100011001000011111000010001011110110111101100111101100101011001111110000010001111100101111011110100101101100011111010110000111101110000111000111110110111011111000111111000001111101110000011010001011101100011111000101001001000010000011100111110100101110110100110001011
0011111010000001001110101011000000111110010011001100001100100000001111101010110110010001101011110011111001000111100000011110100100111101100001101110110111000000001111100111011110001000100111100011111011000010110000010000011100111110111000001111010111101010001111101110000000000001111000000011111000011011011001111001101100111110100010100010100011110111
0011111010000111110011101101000000111110010111011001100011011101001111101010111111100000010000110011111010011101010101010001111000111101100010110010110000101110001111100111111111011011110110000011111011010010011110000001100000111111000001011110001000000000001111101100100101111110100100010011111000100110101001000100000100111110011101101000011100101011
0011111010101010100010010101001000111110100000111111110000000100001111101100100111110011010001100011110111000000101001111010101100111101110110111011010010100101001111100010000011010110110010100011111001011111110100110011011000111111000011010000110101100010001111101110110011100100100111110011111001010110110101110111101100111110100001000100111010111011
0011111011011100100110100001000100111110100100010110010010110000001111101101111100111001100110010011110111101110110101100001000000111101110111000110100111010000001111100001011101100111011100100011111001011111100101001100100000111111000111000101100011111000001111101101000110110010011110110011111001101001110000001110001100111110100011010100000000101111
0011111011011011110000010010101000111110100010110110001010000101001111101110010000111101110110100011111000011000011001010100101000111101110010010010110000111000001111100001110001000101011010110011111001100010001010001110110000111111000110100100000001110000001111101101000100000010111101000011111001101011001111110111011000111110101011001100101111101100
0011111010011010100001110001110000111110011011001011101100000010001111101100001111001001001101100011111010001110011010010011101100111101100111010001011000100011001111100110111111000001011000000011111010110111111110011000101000111111000011011011011100011101001111101101011010110000010100000011111000111101011011001010000100111110100100010010110011100110
0011111100000000100001110010111100111110100011111000111000001010001111101111010101001011111001100011111000000011000011010101000000111101110101101110000000111111001111011111100001001101101110000011111000100010100010101111100000111111001001000101011101110010001111101100011111000001101111100011111001111111001011001010100000111110110000000011100110101011
0011111010110111110001010000101000111110100001110011010101110101001111101101111110001011101100000011111001101000001011101001011100111101101010110011100111000101001111100011100011011100101010110011111010001110110001000100000000111111000101011010111001011101001111101101100110001001100001000011111001100110100100011111000100111110101111000000010001100111
0011111001111100101010001110011100111110010010011001100101000011001111101011011011100010001111010011111011000101000011100011011100111101011111000100111101000001001111101001100100011011010100110011111011100110111010101101000100111111000010110001010111010011001111101100101010100111100100110011111000011100010010000010010000111110011011000110110001010011
0011111001101100001000001010101100111110010100100001011010111010001111101001010101100001100100100011111010000101001110000011110000111101011111010110001110110111001111101000010100001010000101000011111011001101110011000000110100111110111100100010011101000011001111101101110000101011101110000011111000010111111110111110111000111110011101011010110111111101
0011111010100110001010011110111100111110100010000111101001101011001111101011011100011010110110010011110110100000101000011110001000111101110101010111110000101011001111100000111000010010110111100011111001000101001100011111001100111111000001011111101010011110001111101111010001001010011110100011111001010101010100111011100000111110100010010010001101110101
0011111011010111111001111001100000111110100011000000010010000110001111101101011100001010001000000011110111000001100011001011111000111101111011011110000111111011001111100000001101010001011101110011111000110101100001010001001100111111000110110010001110101110001111101101101010000011100000000011111001110010111001100110101100111110100001111100001111011100
0011111001111111111011010110111000111110010010111010100110110011001111101011000111100101101000110011110111101000110101011000111000111101100001011000101001011000001111100101000011010101101111100011111010100100100011111011001000111110101101000011100001001101001111101110010100001111111111100011111000011100111100001011011000111110110001010111001011000011
0011111001101011110101011001000100111110010000010011111001010101001111101010101011111010100011010011110111111111000011110111001100111101011101110110001001000011001111100110100101110011111101100011111010111010101000110010001000111110101100000000000001000000001111101110010011010000001101110011111000010011101110111100110000111110101101010011001111011101
0011111100000001000011011001001000111110100100011000110110001111001111101111000011111011111100010011110111011000101110110011101000111101111001000000011110100000001111011111001110111010001001010011111000011110000001100111111000111111001001100111000101001001001111101100100000101111011111110011111001111101000000111110001000111110101001000001001110000110
0011111100000110001001111100010100111110100100110111110101101101001111101111101101111100010011100011110111101111011101111101110000111101110110000101010010101000001111011101001110110011101100110011110111111111010100010110011100111111001001011010000010100101001111101100100110100100010011100011111010000101011000011100010000111110110111000000001101010100
0011111011110000000001100111110100111110100011011101110110001000001111101111000000110100100000000011111000100001110111001101110100111101110001110101000111001010001111011111111010011110110010000011111000101011011110111001110100111111000111100001001011100100001111101100110010000111010111110011111001111001111110101000101100111110110101101010001011110110
0011111010001100000010000010010000111110100001010101111111101100001111101010011101111000111100100011111000100010100100010100011000111101100111110011101011000011001111100101011010111110001111010011111010011111000001011000000000111110111011101100101001010101001111101110011101111010111100110011111000101100000111011010011100111110100111011000111110111100
0011111010001011000110100100000100111110100001000000010011010000001111101010011110111111100110010011111000100101101100110110011100111101100111100010111001101010001111100101100011000111001000110011111010100000101001011110000100111110111011110001010110000001001111101110011101010010011101100011111000101100001110010001000000111110100110110111101110111001
0011111001011110011111110011011000111110001101001010111101100100001111101010010011000101100110010011111010110110110011101001111100111101011000000010100100000001001111101010010000100010000101000011111100000001111110010111101000111111000000100000000000000000001111101101100111110011000010110011111000010001111011001010100000111110010110011100110010001101
0011111010101111110100000111011100111110100101001111010011000110001111101010110101101111110001010011110110011000100111011001000100111101111011001100100001010010001111100000000110110100101000100011111000100111000010001100010000111111000100111000101110101010001111101111101101000101000110000011111001011101111110001110101000111110011011001110111100011110
0011111010111111100111000101010100111110100001010000100100100010001111101100010010100011001111000011110110100010000000010000001000111101111100100100111111111001001111011110111010000101010001110011111000011100011000011101100000111111000100101101111100111111001111101110001001111111000011000011111001110111100100100110001000111110100000110110110011011111
0011111010010000010100001101011100111110011010110111110000010101001111101011000100111100000100010011110110101110011010111010011100111101101011110011000000110111001111100010100110100011000001100011111001110110100110110010001100111110110110010110101110010001001111101111000001010001111101100011111000111000110000000010100000111110101100011101111001000110
0011111001101001101101100110100100111110011011000010010101100100001111101001011101010111110110110011111000001000000100110011010100111101100001010010010111011011001111100101010100000110100011100011111010101010011110110100011100111110101110011110010010100000001111101111010110011111010111000011111000100111101100001100001000111110110011100001001011100001
0011111001011101010001011100100000111110001111001010011000010011001111101001110111101110111110010011111000011101000010110111010000111101011011100110010100001000001111100111011100101010101100010011111011000100101001111101110000111110101111110110001111101010001111101110100100100000011010000011111000010001000111001001100000111110100110001000010110111000
0011111001100111101011011100100100111110011010000011101101110101001111101001011011110011010110010011111000000110010101001111110100111101100000110110100111111010001111100101101100100111000000000011111010101111000111110111111000111110101110011000011000001111001111101111010000011001011101000011111000101000001001011011101000111110110001111110011101100110
0011111100000111100100000000100000111110100100101000110011001000001111101111011111100000101100110011110111010011100111000111100100111101111001000100010001000010001111011100111100101101001100110011110111111101110010000111000000111111001010000101101000000010001111101100010110100111111110100011111010000011000100101100110000111110101110100010010101010110
0011111100010101111011110011110100111110100100101100101010100010001111110001000001101011000000000011111000000000101101101110011000111101111010101000111111100010001111011111011000110111001110010011110111101100000010101100011000111111001011011000000111110111001111101011100101000100010111000011111010001111000100010000100000111110111011010111110010001010
0011111011101110000001100111011000111110101011000010001110011011001111101110001101011101111011100011111000000101010010101001011100111101110100001111100101000011001111011110100100111100100110010011111000001110010101111000111000111111001000010011110101110111001111101110010100011101111100000011111010000010101100010100010100111110111111101101100001101000
0011111010010010101011011110010100111110100100001000011000000010001111101010100110101100011011010011111000011101111110000000011000111101101010111110101110111101001111100100110011010101101011010011111010010011001000110101100000111110111101011011010011101111001111101110100001001101010101000011111000101100101110111101001100111110101001110011001011010010
0011111010010010100010010001011100111110100011110001000101010100001111101010101011111111100101100011111000011111001001110011011100111101101010111011100000100110001111100100110110110100101010000011111010010011101011110100011100111110111101101010101111011011001111101110100001010111100100000011111000101110010001110110000100111110101001010000011000001010
0011111001100100010000011111100100111110010001000110100100001111001111101011111110100001101001100011111011011010000010111011101000111101011011101100111100010010001111101011000011001001011010100011111011111000001010111001110100111111000011000001010001101101001111101011111001010100000001000011111000001100001101000100001100111110010000110110101001101100
0011111001101001100010110001000100111110011111100110011110001010001111101001000000101100011110100011111000001110111110010101001000111101100010110010001111100010001111100101000001011001001111010011111010101001100001111101010100111110110000101010110000111111001111101111101001110110111011110011111000110000000011111000000100111110110011010111010001010101
0011111001001001101001100001100100111110000111111000111101101010001111101001111111000011101101100011111000000011101001010000101000111101010010110011001100111110001111101000001010010001011110100011111011001110100000111110001100111110101001000011010111011000001111101110110110000101010000100011111000001000001101100111110000111110101000101100010011110010
0011111001001010101001000111110000111110001100111010110100000011001111101001100110000001110111100011110111011010010110101100100000111101010010001101100000000101001111100110101110101001010100000011111010111101111000101001111100111110100101110010110010110010001111101111000110010010100000000011111000000110010111010000001000111110101110101010110111011001
0011111001100010110011101010000000111110011010000011001100011010001111101001011000011111100010000011111000001000001110111110010100111101011111111001011101110100001111100101100011011100010011110011111010101110010011011111010000111110101101000001100010100110001111101111011000101100100101010011111000100100001111101100110100111110110100000000010101000100
0011111000111011011011000110010000111101111000001110100101001101001111101011000101111011000101010011110110100001000011001000101100111101011000110000111010111000001111101000101110111011100111100011111011011011011111010001111100111110100110011010011110000100001111101111110100010000011011100011110111111001110110101000111100111110100011010011101010110001
0011111001011000110110100101011000111110011000011011101110011001001111101000000011011001101010100011110111001001110101110101111000111101010101011110001010001100001111100100100011001110001101100011111010110100111011000111100000111110100111010001001111101111001111101110001110001000111000010011111000010111110101001110001100111110101110011101010111001101
0011111001001110010111100000101100111110001101001001000001111000001111101001010100000110000110100011111000011000101011111011011100111101010110001001010001000001001111100111110010001111010101000011111011001101011101001100011000111110101101001110111110000101001111101110110010111001100101110011111000001110001010101000000100111110100101001000101110001000
0011111001001111001101001000111000111110010100110000100110000100001111101000100101100101010101000011110111100111011101100011111100111101011001010111100100111011001111100110001001110111110011110011111010111010001001100111110100111110101011111110001110110111001111101111010110000101000101010011111000010000110001000011100000111110100111100000111100111000
0011111001011110111001010101100100111110001010110010001100001101001111101010001001101000111101100011111001101110001111001010110000111101010110011000011110010001001111101000100101110011100100010011111011011111110101010111001000111110110011001110010010010100001111101101100101110111110010100011111000000111010111001100001000111110100101101000000110111000
0011111010001011000001010000101100111110100001000011010011001111001111101010011110000110101110110011111000100101010000010001101000111101100111100011100111101010001111100101100010100011000110010011111010100000011110101111010000111110111011101111101110010011001111101110011101110101100110000011111000101100001100011101001100111110100110111000010000100101
0011111001100001110100001101111000111110001111100110010100010010001111101011000011101111101001100011111011001101101001001010000100111101011010010011011010101000001111101010011001010000101001110011111011110111000111111010000000111111000001100100100011010010001111101100011100101101011101110011111000001111101001001000110000111110010110001111001011001101
0011111001011001101000010110100100111110011011110111010111111011001111100111101010111000110101010011110111111011100001101011111000111101100011110100110011001100001111100110010011110010100001100011111011001000001000011000001100111110101110111111100101001111001111101110000110100000111000000011111000011000101000000111010100111110100001110111110110010100
0011111001001110101111010100110100111110011100000001100110111100001111101000000000111101000000100011110111000100011000010001111100111101100001010110100010001000001111100100011110110110101001010011111010100100001101101110011100111110110000101001111100001101001111101111111001010100110111000011111000011011010011111111000100111110100011110111000001001101
0011111001100000110100010010101100111110100000100111101100111101001111100111001111000111110011010011111000011110101010100111010100111101100011010011010100111101001111100110001010110000001100010011111010110010110001000000111000111110110110010100011010010001001111101111001001001010100110110011111000100001101000110011111000111110100010000101001100100011
0011111001100001011010101001011000111110100001101110000000100010001111100110101001001000111010110011110111110000011011001010101000111101100011011001001001101010001111100101000011011010111011010011111010100100110101110010110100111110110011111000010111101011001111101111100011001100101011110011111000100000101110110111010100111110100011110110101011110101
0011111011010011100000000011101100111110011110110101101010100100001111101110101101001110101000000011111010000000010111001110111000111101101011001010110110010101001111100010011011110001000100010011111001101010011110101010100000111111000110100110001011001100001111101100101111000100111000100011111001101010000111110000101100111110110101011110010101001111
0011111011110001101101100101000100111110100010001111010110110000001111101111111101011100010101100011111000010000111011001110100100111101110010110101110110111101001111011010100100000001010111100011110110111100111000111101101000111111000101010001100111010010001111101101101101111001111111000011111010010001001100111100001100111111000101100111110111100010
0011111010110001110111010011011000111110010100001001010010111100001111101101110000110011001011110011111011010011010110011101011100111101100100001010100110010001001111100110001000110111111010110011111010100110111000011100100100111111001000001110001000001011001111101011111110100011001011000011111001000011010010100111100000111110100110101101001011110100
0011111010101111010101010000111000111110011001111110110001110110001111101101011110001110111110110011111010100000111110011010001000111101100110100000010001010000001111100101110011110111111110100011111010100001101010000111000100111111000101000100010100101111001111101100110100111101110000000011111001001010111010011100111100111110101101001100001111001000
0011111001110101110011100010000100111110101001000001011110000111001111100011110100111101000010010011110111011101110010010100111100111101101110101110110100010011001111100011110010010101100000100011111010100000011000001010000000111110111010001011000000101111001111101110101110011011111010110011111000100101111000100100011100111110100000010000100101001010
0011111001101111010010100010111100111110101001001000000100111110001111100011110001000010100001110011110111100101101111000110101100111101101000011101110000001110001111100011001011110110000001000011111010000100110011010010001000111110111001001001100000111100001111110000000001000111001001110011111000110000110011111111100100111110100011110011110100111010
0011111001101000110010110000011000111110101000111011010011101111001111100011110011100010101101110011110111000101100110010010111000111101100110000011010010000000001111100010101010000011001011110011111010000000111100001001000100111110110110000001000010110000001111110000001011100101011010110011111000101000101000100000111100111110100101110111010100001101
0011111010011111101110100010000100111110100000101100000010110111001111101010010011010010101110110011111000110001000101011111001000111101101101100101010111101010001111100011100010000101001110010011111010001011110110101011011100111111000001100011110011100010001111101101111011000000000011110011111001001000011011111011011000111110100101110010011001000000
0011111010011111101110100010000100111110100000101100000010110111001111101010010011010010101110110011111000110001000101011111001000111101101101100101010111101010001111100011100010000101001110010011111010001011110110101011011100111111000001100011110011100010001111101101111011000000000011110011111001001000011011111011011000111110100101110010011001000000
0011111100011101000110111110001000111110100100001110000000110010001111110000100111101110001101110011110111000011111000101011100100111101111001010111110101111000001111011011000111010111010001010011110110111000110111011110111000111111001101010011101100001010001111101011000011010011101001110011111010000101011000000100111100111110101010110101000111110101
0011111100010001001101001100011000111110100101101001010011011001001111101111110101110110111000110011110111011111001100101010011000111101110111011111010010110000001111011100011010111011100010000011110111011110110001100000111100111111001011011110100101110000001111101100001101010011000101000011111010000101101000010100001000111110110101011001001101001010
0011111100000111111010100001110100111110100100001001001100100111001111101111110110101100111010000011110111100001110011000110010000111101110011000011000101010101001111011011100011011010111101010011110111001111001110110100011000111111001000111011010011010110001111101100100100111110000100100011111010000001110110100100101100111110111001101111101001100111
0011111010001100001100111001110000111110100001010010101100110011001111101010011111000100110000000011111000100011110110100110000000111101100111101110011101100011001111100101011010000100010000010011111010011111001001101110110100111110111011110000011000001001001111101110011101011011001001100011111000101100000111000000000100111110100111011011011001100111
0011111100000101111001011111011100111110100001111001100111111101001111101110111111111010111100000011110110101111011011001000101000111101111101101101100010011011001111011011011000001110011011110011110111010000100111110100111000111111001001100101101100000111001111101100110110010000101011000011111010001000100010001101001100111110101001010111110110010110
0011111010010100100001100010011000111110101000111111011011010101001111101001100000000110101101100011111000001101101111101111110100111101101011101011011100100110001111100100000011110000010010100011111010001011101111100111001000111110111010010000000100110000001111101110011111110010011110100011111000011000011111100010110000111110110000111011110100110011
0011111001110000101011001000110000111110101111010110111110010110001111100001100101101010010101010011110110111001011110110110010000111101100111111010110010011011001111100000111110111001111010010011111001001101000100101000100100111110111000001111001010010110001111110000010111001010010111000011111000101111000001010101001100111110100111101101000111010111
0011111001111011000011011001110100111110110101001101010111001110001111011111001010000110111000100011110110111011101101100011001000111101101100100101111110100011001111011111101101010010100101100011111000100111111100110000011000111110111101101010010001101011001111110000100011011101110110100011111000110110000110110110001000111110100110010001000101110010
0011111001101010110101110100010100111110011111100011100000000010001111101001000010010110101111100011111000010101001001111000111000111101100010100100100100010101001111100101001101001011001000010011111010101011000010111110011100111110110000110111001111111000001111101111100001000010111110000011111000101110000011000001111000111110110011010111100011101010
0011111001001000000011000100000100111110010010000011000010100101001111101001100111111000100011010011111000000010100100101100111000111101010000110010001110111010001111100100110110000100000111100011111010101110101010111011100000111110100011001000110110000011001111101110100101011010111000000011110111110110101100010100011000111110110110000101101001110001
0011111010100010110010101110000100111110100000100000100000110011001111101010000010010110100001110011111000011101000110000010000000111101110000010010111100101100001111100011010010110111010001100011111010001001011011111110011000111111000001100010101000000100001111101101111011101100000000110011111001010000001000001110111100111110100110010110001110001100
0011111010100010110010101110000100111110100000100000100000110011001111101010000010010110100001110011111000011101000110000010000000111101110000010010111100101100001111100011010010110111010001100011111010001001011011111110011000111111000001100010101000000100001111101101111011101100000000110011111001010000001000001110111100111110100110010110001110001100
0011111010011111101110100010000100111110100000101100000010110111001111101010010011010010101110110011111000110001000101011111001000111101101101100101010111101010001111100011100010000101001110010011111010001011110110101011011100111111000001100011110011100010001111101101111011000000000011110011111001001000011011111011011000111110100101110010011001000000
0011111010011001011011011111000100111110100001010111110110100110001111101000001001101000110101000011110110100100101110001101010000111101110101100000001101111001001111100001000010111101110101100011111001010001010100110011100000111110111011011001100011010000001111101101111011101011111011110011111001001011010011100110010100111110100111111010001001111001
0011111000111101011011011101101100111110100100101100000100110011001111100011100100111010111110100011110110001100011011010101101000111101100110000001100111000110001111100100111111011001000100110011111010000011100000001000110100111110101100100001000000011010001111110000101010001110100111110011111000001111101110010100110000111110111000111100111011111110
0011111001011100111111100110001100111110011010110100101100110001001111101000010010001100101111100011111001010101010111000101011000111101100000010011011100101100001111100111100001100101100001000011111010111100001000000111111000111110110101000011010110100100001111101111011000100111111101010011111000100101111011010111011100111110101110111101111010001110
0011111010010110011110001010011000111110100011110100111100101010001111101010010010101000100100010011110101101101110100100101100100111101110110101110110110101001001111011011011111000100110001110011110111001101101001000011011000111111000011100100101101010101001111110000010111001101101001100011111001010100111110010000010000111110001111110001110101000100
0011111010111011111111000100100000111110100101101000000000101010001111101011010001110111100010000011110110010101110111110101100000111110000011010100111011111100001111011101011001000011100111110011111000001100010010000111100000111111000101111111000001101001001111101110110011111001101010110011111001111010010011101110010100111110011100000101110001001010
0011111010011011100110101110010000111110100000110101100001111000001111101010111100001010000100010011110110010001001000011110000000111101110100111000011010100111001111100000110011101011100110100011111000110101010000111111101100111111000000011110110000111011001111101111110101100100000011000011111001001110011000101001010100111110100001101100001111111001
0011111001101011001010010000010100111110011111010110111100111101001111101001000001100110000101010011111000010000111100110010001100111101100010011100110101110111001111100101001011010111101011010011111010101001110110000010100000111110110000101101011111111000001111101111100000100111011111110011111000101101110011101101100100111110110011010011000001010100
0011111001100010001001011001111000111110101010000101101001110001001111100100000101011001000011110011110110111000011111101011011000111101100001101101011100101001001111100001100000100011011000100011111001101011100010001000000000111110110000001101001001111110001111101111101110000001101001110011111000101001110101110111100000111110101011010110101010011100
0011111001111011011000010110111000111111000001011001110010010111001111010111011001101100110110110011110110110110010111000111000100111101110001110100100000110001001111011001100000110001011011000011110110101010001101101011100000111111000000011001111010000000001111110001011001110111110100000011111000101110101000001001100000111110101010110110110110000010
0011111001100000000101110100100000111110100100100110010100010111001111100101111011010101100101110011110111010010111101110110100000111101100001110100011110000100001111100011010010111100001001000011111010001110101110110110010000111110110000100001010010101000001111101111110100000011000110000011111000011101110001100111100000111110101010100010101111101011
0011111011111000011011000011111000111110100011111010000011100100001111101101101101101000100011110011110110101010101111001111111000111110000010001111010111100110001111011011011111111001100010100011110111011100100110010110110100111111001001010000001011011010001111101101000000110101010011000011111010001001001110000101110000111110100110000011010100111101
0011111100010011110001011111001100111110100010011100001100111110001111101111111001001111110001000011110111000001100001111011110100111101111100101000011000101101001111011010011011101111100001000011110110111000001111001111010000111111001011111111010111001010001111101011110000100000100110000011111010000000000001111110101000111110101011001010001111011101
0011111011110000000111100011001000111110100100000011000010110110001111101101110011001010000111110011110110111010001101100001010000111101111111010111000010011100001111011101101010001101011010100011111000001100110111110001100100111111001000100111001001011010001111101101000011111000111100100011111010000001110010000111110000111110100101001010000100111011
0011111011010100111100010101111100111110100100010010111100000100001111101101000100111001010000110011110110011110011011100001011000111110010000100001111111111010001111011011011011001010111111000011110111100011010111111011011100111111000111100101001111100110001111101101101110000000010001110011111010010010110100110011000000111110100001001101111000001010
0011111100001001010011011011010100111110100011101110100101111001001111101111101000001011100000010011110111000000011100110011101100111101111101000001110001110010001111011100001110010001011111110011110111010110010001101110000100111111001100011011011110011010001111101100001101000010000010110011111010001100001011110001100000111110100100000000100011010001
0011111011011010000010101111000000111110100010010000011110101110001111101100000001001000111110110011110110100000001001001111011000111110000000010111110111110101001111011011001010100011110001110011110111101011010110110100000000111111001000100010101101011110001111101110011110010100000000110011111010001000001010001110111100111110100010101101111011101110
0011111001100001110101000001101100111110010011001110011101000111001111101001110000111010100110100011111010011000011101100011001000111101011100100000001110000010001111101001011101011101000110100011111011101100010001000100011000111110111011011010001110101000001111101101001111100001000100000011111000001010000011010011000000111110011101000011101110000101
0011111000111110101010001111100100111110001000101110100000100110001111101010001100101000001111000011111000011110010001011000100000111101010100111100010000101100001111101001101000011100011101110011111011100011110110100101000100111110101100110101000101001100001111101101110011011011111111100011111000010110101001111001001100111110100001111010010110001001
0011111011000011001101010111100000111110100111110011100100000010001111101011000101111011101100000011110110001001111100100101001100111110000110110010011011001011001111011100110110101011011011110011111000011111010100111110000000111111000110011111100101101001001111101101001100010011010000100011111011010001010001110010110000111110011110010010111000000001
0011111011111011100011001011101100111110100110011111001101001100001111101101011110110111111101010011110110101011010111101000001100111110000101011101100001110101001111011100010000101000000111100011110111101001100101010110000000111111001010001010111000111100001111101100101010010010011010000011111010001101001110100110010100111110100011111111110111101100
0011111011000011011100001000101100111110100100001001001100010010001111101010110011101111001011100011110110001101010000110101000000111110000000110110100110111001001111011100100101101110110010010011111000100000010001001111010000111111000100010101110001101111001111101110110101111011100010110011111001100100110000101011101100111110100110110010111001011101
