00111111001010100011100110000010001111011011011000001111011100100011111101010001010000100110011100111111010110101010110001001011 00111111011011110100111010001100001111110011110100011010100100000011111001011110000000001001001000111101010011101010101100100110 00111111000001000101111000100110001111011111011011111001011111100011111100001001000000110000111000111111011001110001100100101100 00111111010010111100000100101001001111110101100101000000001001110011111101000010100000011111010100111111001110000000111110000110 00111101100011110111001111001011001111110001001010101011010011100011111010110010110000010110010000111110101001000001010000000101 00111111011100011000100010101010001111101000111001101000100100010011111000001111100000001011111000111111010010100110111011011011 00111111011111011100111111100101001111100001111110011001000011100011111100110101000101010001100100111111001101110001100101110010 00111110000111000010001111011110001111110111100011101110011000100011111101011010011101110000100100111111001100100010100000001010 00111111000101110101001111111110001111110100010011100101010111000011111010011011000100010010100000111101100111000000101101011100 00111111010100001010111011011001001111110111110110100111110000000011110111101111001111100010111100111101100110101101100000010111 
00111111010010011111110010110001001111101001110011011100100011110011111101100000111100010110010100111111001111111111110000110011 00111110100100101111001110000000001111110111101000000100011011100011111101010010011000101011101100111111011101011001101111111100 00111100001110000010001000101111001111101110001111101101011111000011110110010111011101010001000100111110010001010001010101001101 00111111000010101100010011111100001111110011111100101110011000110011111100001011111110100100000100111111001111010111011000101111 00111110101100000000010000001010001111101011010000011110111110010011110101011110110101000101111100111110100010111001000010111001 00111110101110010001100110001100001111110000111000001110100010110011111100100101110001000100010000111111001001111110111011100111 00111111010011000100110111000011001111000101010011100001011011000011111101111000000011010111101000111101000000110111100110111110 00111110100111111000110111110101001111101001100111011111111110000011110111000011110011001111001000111111001111001111000011100111 00111111010111010011111111010010001111100100010011110000111101000011111100000111000101000101010000111111011001000111010111100100 00111110111000101011111001001100001111110001011001001101101101000011111010000000100101111000111100111111001100111100100010110110 
00111111000111110110110101000101001111110101011010010010101110110011111101001111010000001110101000111110100111101000011001010110 00111111001001001100001001101000001111110011101000100011001011110011111011111011111011111110011100111110110010011011101111110011 00111111011011010100000001010010001111100001111001001111011101010011111011100100010110110001100100111110000101011001011001101111 00111110111010101010101110101011001111100101001101100011001110110011111000000101011011100110111100111111011110111000001001111010 00111111001100111101100110010111001111100010101101010100100110110011111100111111100001100001101100111110101001010100000111101000 00111110010110000100111110000011001111110110110100000101110110010011111101010011010110001101110000111111010101000001001100011110 00111111000110011111000101111010001111101000001110111000101010000011111100101110000101010000000000111101101000111101001100001000 00111111010010001101110010110000001111110110000100001110011101010011111101010001010010010110011000111111000101100111001101101011 00111111010100011111111001101101001111110101010000110001000011110011111001111000101100111100010100111101100000111011100010011001 00111110101001100010010101000111001111110010111000101011000001100011111010111001010110001001011100111111000101011100100000101110 
00111110111110001110100000111001001111110111000000111001010010000011111010010110101011101001100100111111000101011101001101111001 00111110111001011000010001110011001111110010110010100111011010010011111101110010011100011000100000111101111011111110101001000000 00111111011101010111100110100000001111101001010110010101110010110011111100000001100111000001000000111111011111111101110010000110 00111111010111001001011010101111001111110101100101010001100011010011111100011100110101000011100100111111010110100011011000001010 00111111010101010001100010000100001111110001101000010100001000100011111011000010111100001111100100111100101000010000110110001101 00111111001110011000010001111100001111100001000011010101011110110011111101010111000010011010100000111111010101100000000000011100 00111111010111011110111111000111001111000111001100111100001000000011110101111100011101000011101100111110100011010101101111010111 00111111001101101101000011011101001111101011010111001101011011010011111100010011011111001110001000111110010000000001000100000000 00111110100111001110000111101001001111110101001000010110001110100011111000110011011010101011110100111101010010000001011001110100 00111101100110010111011010111111001111101011011101110000100110110011111011111101001001110110111000111110100100110001011010101101 