0011111101110111001001010100101100111110100111010101101000111000001111101001011010110110011101100011111011001101010100110001110000111111011001010011010101100100001111101100111001111010010100000011111100001010001001010010000000111111001000000101000001111101001111101010001110110011001100100011111010111100011000001000000100111110100101010001000010010010 0011111100101000001100100010001100111110111010101011111101011011001111010000001010101110111000110011111000111101111010001100011000111110101010100100001000100100001111000010000110001101001111010011111100111010011111001101110100111111001110010000001110100110001111100001101000000010011001100011110111100000001111000001010100111111010100001011101000000010 0011111000101100101110101100100100111110001100110100101110000011001111101110010100110100101100110011111101011100001110110011110000111101111000011000010110100010001111101101100000101000010000100011110100011001011111010100111000111110110101111101110100110110001111101101001100101010100101110011111101100110001011100001100000111111011011010100000011100001 0011111011001010010000001000001100111111010101111111010000100111001111110111101110010100100110000011111011101000101001101010101000111101110011000111011101011011001111110100101011101000010010100011111000010001010100111000100100111110100100100111001000111111001111110000100110000001001110010011111000110100100101010000001100111101001110010001001100110010 0011111101101001011011000110111100111111001010100111100011010010001111110101111000001101111000000011111101001011110100011010111000111100000111001001001110110100001111110111100011001100000000000011111100100110101100101010010100111111011011010001011010000100001111100001010000100010010001110011111001101010000010100100001000111110010011011111110101001011 
0011111100101011111011101011011100111110101101110111000010011011001111100110101010100111100010110011111100000111110010100010111000111110110111111110010111111001001111110001101101100100011011000011111101111011011010010001010000111110011010111111111111111010001111110101000111110000011100100011111010000110100010110101101100111111000010100011010001101110 0011111101110100010010011101011000111111001001001111010010110010001111110110001001001011011000100011111100111010101001011100100000111111010000101110000110110011001111110101000010100101101010100011111100101010100111001101011100111111000011010111010101001110001111100111110010101000101011010011111101001100110111001111011100111011100101000100110111110111 0011111100011001001010001111100000111101110011010111111010000001001111100011011101010000101111100011111101010110100111110111010100111110000111001111101101111110001111101101010001111011111110010011111101111101011110011011011000111110111111010101111000001001001111110111100010100000100110100011111100011111110001110000111000111101011010100101000000110010 0011111101101100010010100100010100111111001101011101111110101111001111011000101000000011010001000011111001100111100100101111010000111111010110110100101000001111001111000110111101100000001010100011111010000001111010001101011000111111010001101100111111111110001111100111001000000111100111110011111010011100100011001000011100111110100110010111101100111111 0011111001101110111110011100001000111110110100010111101010101010001111101010010010111000011101100011110111000000010000101101001000111111010110111010011001000101001111110111101001100010010101110011111101111011100001111111000100111111001010101101100101111001001111110100101110101001001111010011111101001000011100100001111000111111010001111000100001101111 
0011111000111001010111111000001100111111010000100111001110010100001111100010001111000000001001100011111000011011100000010001101000111111000011101100101011011000001111101100010001011001111001010011111101110110101111110101111100111110001101000101111110100010001111110101111011101100111011110011111101111110001100011001001000111111010000101000111101010100 0011111011000100010000011110110000111111010101111101111011001100001111010101100000001010001001110011111101111010000110111101100100111101111001100011110000001000001111110110100010100111100000000011111101111001000100100011001000111111000101001101101100101010001111110010010010011101101110100011111101101011111110111011000000111110100111101111001111110100 0011101110010101110011000110010100111111010110101000000100010101001111110011010001011011010111000011111100001010010111101100000100111111011101001000000001011110001111000101011101010100100011100011111011101101000101110011101100111111000010011101101000001110001111101111100101111101011110010011111010110000000000110000000100111111000010010001111110011001 0011111011001110101111010101010100111110010100011000010100001110001111110000010001011001100110100011111100111110011110000010101100111110100010101000010100101001001111101001101110111010110111100011111011111011001101100010101000111110111101111010111000010000001111011001010000100010000110110011111100010100101110000010010000111110111100011110001000101111 0011111011011100011010000000100000111111011101111100100001101111001111110100011010010010000011010011111000110100110001101001111100111100011001010001010111000110001111011010001110001001011010100011111010110101110000011101010000111111010001000010000000000000001111001100111011001011011010000011111101010101011001000010001000111110111110010111101111011001 
0011111100001001010001011111110100111110101111010100000110111001001111010010001100000111011111100011111000000111110100101000100100111111000100110100100011110000001111110110110010110000000111010011111011010001101001001000011000111111001010110101101010000000001111110010010011101001110001000011111100011010011101101100001100111111010011101110101011000111 0011111010010110101000110101110000111101010000111110010110100101001111110000001100111111010110010011111101111111011010100110000000111111001110011000000011011001001111110100001001001011111001100011111101111111000100010110011100111101010010101010001101001001001111101010001000111010100101000011111101001001011011101111100000111111011001101011000101101011 0011111001100110010110111010001100111110111001001000010100101110001111001101000000011100101001110011110010110011001010011101101100111101111011011111011010011110001111110010100111100000001110010011111011101011000000010110101100111101100100111011011000010100001111110000100100101010011011010011111101000101000101000101010000111111011011101010100100010001 0011110000010111010100001110010000111111011001011000000011000111001111110010111110100111000011010011111100110101110101110100011100111110101011101110110100001111001111110101000101101100000000110011111101010101000110000001100100111111001100001101111000100001001111100110100111100000001101000011111010110010111100111101001100111110000100001001000010000110 0011111010000100110010000001100100111111011010111011000110101011001111101111111111111011100111110011111101001110001010101010110000111110100001100010100000000111001111110110111001110100010010110011111100010000111000101100010000111111011001111000111111111110001111110110110111001111100000010011110110110101010100001000101100111110101111110110001110001010 
0011111100111100010111010011010000111111011111010110100101111101001111101001101001010001000011100011111011000100011100100100100100111110110000011110000011110110001111110001010010000101010101000011111101000111101110001001000100111111000101001000011110110111001111001010100111110001011000000011111011000110100000101000001100111111010011000110010100111011 0011111011010100011100101100110100111111001000100111010010110011001111110110000011100001001011010011111000000000011000110000011000111111010011111000111100001101001111110101101110011100111010100011111001111011100011110111010000111110101011101100011001001100001111110011011110011111100111100011111101011011101001111110000000111110011111111000101001000101 0011111101010000100110011010100000111110001111101110101111000110001111101011100011100111101101100011111100011011010101110011111000111101101101010010001001100110001111100101000100010001001111110011111000011111100111010001001100111111011100001111000100111110001111110010100011001110100111000011111010111100101010101001000100111101100010111010001001101000 0011111100010011101011000010010000111111011010010000011111100111001111100010001011111101100010010011111100111111110101111001001000111111000101010111101111101100001111110101011011111001100110110011110110111100000100100100001000111110101001010110001101000110001111110010111100011000010010110011111100000000100111111111100100111101001000010000001110010001 0011111100111000010001101001111000111110111010010101101011100111001111101110000000100110011110110011111101011001001010110110100000111101000100000110001001111111001111011010011111100110110010000011110101011000000101100101110000111110111110011111100011111111001111100110101011111000001100100011111011110100010001011000101000111111010111001011110111000100 
