00111111001010100011100110000010001111011011011000001111011100100011111101010001010000100110011100111111010110101010110001001011 00111111011011110100111010001100001111110011110100011010100100000011111001011110000000001001001000111101010011101010101100100110 00111111000001000101111000100110001111011111011011111001011111100011111100001001000000110000111000111111011001110001100100101100 00111111010010111100000100101001001111110101100101000000001001110011111101000010100000011111010100111111001110000000111110000110 00111101100011110111001111001011001111110001001010101011010011100011111010110010110000010110010000111110101001000001010000000101 00111111011100011000100010101010001111101000111001101000100100010011111000001111100000001011111000111111010010100110111011011011 00111111011111011100111111100101001111100001111110011001000011100011111100110101000101010001100100111111001101110001100101110010 00111110000111000010001111011110001111110111100011101110011000100011111101011010011101110000100100111111001100100010100000001010 00111111000101110101001111111110001111110100010011100101010111000011111010011011000100010010100000111101100111000000101101011100 00111111010100001010111011011001001111110111110110100111110000000011110111101111001111100010111100111101100110101101100000010111 
00111111010010011111110010110001001111101001110011011100100011110011111101100000111100010110010100111111001111111111110000110011 00111110100100101111001110000000001111110111101000000100011011100011111101010010011000101011101100111111011101011001101111111100 00111100001110000010001000101111001111101110001111101101011111000011110110010111011101010001000100111110010001010001010101001101 00111111000010101100010011111100001111110011111100101110011000110011111100001011111110100100000100111111001111010111011000101111 00111110101100000000010000001010001111101011010000011110111110010011110101011110110101000101111100111110100010111001000010111001 00111110101110010001100110001100001111110000111000001110100010110011111100100101110001000100010000111111001001111110111011100111 00111111010011000100110111000011001111000101010011100001011011000011111101111000000011010111101000111101000000110111100110111110 00111110100111111000110111110101001111101001100111011111111110000011110111000011110011001111001000111111001111001111000011100111 00111111010111010011111111010010001111100100010011110000111101000011111100000111000101000101010000111111011001000111010111100100 00111110111000101011111001001100001111110001011001001101101101000011111010000000100101111000111100111111001100111100100010110110 
00111111000111110110110101000101001111110101011010010010101110110011111101001111010000001110101000111110100111101000011001010110 00111111001001001100001001101000001111110011101000100011001011110011111011111011111011111110011100111110110010011011101111110011 00111111011011010100000001010010001111100001111001001111011101010011111011100100010110110001100100111110000101011001011001101111 00111110111010101010101110101011001111100101001101100011001110110011111000000101011011100110111100111111011110111000001001111010 00111111001100111101100110010111001111100010101101010100100110110011111100111111100001100001101100111110101001010100000111101000 00111110010110000100111110000011001111110110110100000101110110010011111101010011010110001101110000111111010101000001001100011110 00111111000110011111000101111010001111101000001110111000101010000011111100101110000101010000000000111101101000111101001100001000 00111111010010001101110010110000001111110110000100001110011101010011111101010001010010010110011000111111000101100111001101101011 00111111010100011111111001101101001111110101010000110001000011110011111001111000101100111100010100111101100000111011100010011001 00111110101001100010010101000111001111110010111000101011000001100011111010111001010110001001011100111111000101011100100000101110 
00111110111110001110100000111001001111110111000000111001010010000011111010010110101011101001100100111111000101011101001101111001 00111110111001011000010001110011001111110010110010100111011010010011111101110010011100011000100000111101111011111110101001000000 00111111011101010111100110100000001111101001010110010101110010110011111100000001100111000001000000111111011111111101110010000110 00111111010111001001011010101111001111110101100101010001100011010011111100011100110101000011100100111111010110100011011000001010 00111111010101010001100010000100001111110001101000010100001000100011111011000010111100001111100100111100101000010000110110001101 00111111001110011000010001111100001111100001000011010101011110110011111101010111000010011010100000111111010101100000000000011100 00111111010111011110111111000111001111000111001100111100001000000011110101111100011101000011101100111110100011010101101111010111 00111111001101101101000011011101001111101011010111001101011011010011111100010011011111001110001000111110010000000001000100000000 00111110100111001110000111101001001111110101001000010110001110100011111000110011011010101011110100111101010010000001011001110100 00111101100110010111011010111111001111101011011101110000100110110011111011111101001001110110111000111110100100110001011010101101 
00111110001100111100110010100111001110111110110000001100100010000011111101000001100111111100101100111110110101010011001001100001 00111110011010000100101011101010001111000100000100011110000110100011111000001001110010010110110100111111011111111011100000000111 00111111001011010000010100001111001111101111011111110000001010000011111011010110110110000111111000111110101111001000011110010101 00111110110110111010110000101100001111110111010000101010001100100011110111101111011010101010001100111110000001001110001000000010 00111110111001010100000101010110001111110110010000001001010000110011111100110000101101010101001000111101101110011010001011000110 00111111011101000110001010000001001111101001110100011001001110110011111100101010001100111001010100111111000110110110110000011100 00111110001110111011111011000000001111110100001101110011110110000011111010110011000110111100100100111101000100110110001010101010 00111110001110111101110000001101001111101001111001111010011011110011111101000001000100111111110100111111000000111010100110100000 00111100101011000010011001100100001111110110010011000000011001110011111101101011100110011100101100111110101110011011011111101010 00111111001111111011111100110001001111101111011000110111011011100011111100101000111110001010000100111101101000011110111101101111 
00111110100010101110100000010011001111100100101001110011110010010011110101110000001010000000000100111111001110101001111010011011 00111110001110110111010001101010001111110010100001011001011000100011111010100000101010010110001100111111000000101010110000111011 00111111011010101010000000111000001111101100000011110110111110100011111100000110001011110101011100111110110000000101011101100001 00111111011001101100110011101110001111110001110100110110010111110011111101001100010110100101101100111111010110111011001001101101 00111111010011100110101001000010001111110011110011000101010001010011110111010111110111011100110100111101100101110000000110110000 00111111000100011011001111110010001111110110010111111110000000000011111100101111111101110100001000111110101110100011011010011100 00111110111101011100000111010111001111011100101101101110010001000011111101110011110010110011010100111111011110000011010001110111 00111110000110010111110111010010001111101110001111110111001000010011111001011011110111010111001100111110010000001001101111101011 00111110010100100110100101000011001110110111101111110011011110000011111001010011101000001010010100111111001000111111001100001100 00111110001100011101001101010110001111101001011101101110000110000011111101100101010010000101000100111111001011100110011011110001 
00111111000011111101001100110010001111101010001100010001001111000011111100010111100100100101100100111110101111010011111001111110 00111110100100111100000100100111001111110111000110000001100001110011110100110100000011110110000100111111010001100010010111001001 00111110001010010111011010011111001111110110011010101100001010110011110111110011011000011110011100111110100010000111110101011010 00111111011011100011111011001000001111110101010111101110101101110011111101011101000100001110011100111110001110001011100101111100 00111110111011001010101111100011001111100001110001001001000110100011111100011001001011000011100000111111001000001111011001111000 00111110000010100111100110111100001111110110000110100101111110010011111101111101100001011000000100111110010101111100011010010011 00111111010010100011000010001000001111100000010001010101111000000011111010001011001000001100100000111101100101010101001111100000 00111111011110101101010100110101001111110101011101111000100000100011111001111101100100010001101100111110011101101010011010100101 00111110001001000011111011001010001111100011101000011010011111000011111101111010001101111110010100111110101010011100101011100011 00111111011000000011011101101110001111100000010111101100111101000011111011000110010101000000011000111110101101100101000100010001 
00111111011001111001011100101010001111011010011001001011001001000011110111100101001001101100100100111110110001101110010100101101 00111101110000110111110111011110001111110101111111101010110110010011111100001111010101010010011100111110000000111101011101111001 00111101111011110100000010001101001111110001011100101110100100110011111100100111110000011000100100111111011111100111110010111110 00111110101111111010101000010110001111110111101000110011110000100011111001011000111110011111110000111111011011110100111100101010 00111110101100100111111110101111001111101100001110110001100000000011111101110110111010111110110000111111010000001110001001010101 00111111000010000111010000111111001111110011101011100100100011100011111101100001011001011101011100111111010110011100011001111111 00111110100111111101000001100010001111101100010001111110001111010011111101010010001101011110100100111110011011111100101001000110 00111111001010100001000110110011001111110101000010010111010001000011111101111100110110101111001000111111011101000011010110100111 00111111000000100010011000100001001111110101110111000100111100000011111000101000111000100001110000111110110011011010001110110110 00111110101000111110101100000100001111110011100001001111100001000011111101001011011000000101000100111111000001100111001000110101 
00111110011000111011100111011110001111101111111001110101001100110011110111000111011101001010110100111111000010010110011001101010 00111111000000110000100110111001001111110010111001001101000110000011111000000010111110010001100000111111001100101111111011101111 00111111010001111110100010010010001111110110110100100111010001000011111101101011000100001011000000111110001010001010111111110110 00111110000011010000001001010110001111110010010010111111000001110011111100001011100111001010011100111110101011011100100000010100 00111110011111011100011001011000001111011001000010101110100011000011111010001000010100111001000100111111001110000100001000000110 00111111011111010000100111101000001111010000111110011001100101110011111001111011101100110111010100111110111110110011101010110010 00111110000001101001110010100000001111100100101011101110011001110011110101010011101000101001010000111110001000000101011100001110 00111111000100010111100001101100001111101011011101111011110110110011111100110101101000110101110000111110010110011001101110011000 00111110111000101001000011000100001111010011010111011011001011100011111101100010111110101010111000111110010011110100110001110111 00111111011111111101001000001100001111110110111111000000001110010011111011100110110110011011100100111110111001111111000101110101 
00111110000100100111100000010010001111100011111001101011101000110011111100011001110100100111101100111110010100100001000011111000 00111110100100111111111101010001001111110100111110111011011101110011110100001000001101001110000100111110100111001001011001111000 00111111000100000101100111111100001111110001001001101011000011110011111100011011110100110111001100111111000100011101100010000100 00111110010000101011010010101010001111110011000111110100011111010011111011100010001001011011000100111101010101100011110100000010 00111111011101111101011000110001001111100000010100011010110000010011111101011111110000101111011000111111001001011010111000011110 00111111001101101010011101110001001111100000010000100100010111010011111100100101110001011100111000111111010111010110101111000110 00111111011101001010101000011100001111110101101000110010100101010011111010111000111110001010011000111101101011101110111110001100 00111111011110001000100101000100001111101010010011000010111101100011111010101111010000000011001000111101010111001111100101111110 00111111011011010000010100111011001111110010000011110001111011000011111100111000110111100111101100111110001111110010010111100110 00111111001000001111000000101001001111110000111111101011110000110011111001110110110011110000001000111101000011101101001100001111