00111110101000111011110011100110001111101100011100011100011100010011111011110000100010010001000100111111101010101000011110101000
00111110110101010101010100110001001111101010101010101010000011000011111100110001111001011110110000111111011101010101010011101011
00111110110101001100010111011001001111101010001010100010011010000011111100110001101110100011000000111111011001011110000001101100
00111110111101111010111100000100001111101110110010111100011100100011111100111001101101010100000100111111010111101111001011100110
00111111000001110001110010110001001111110001010101010101010010100011111100111110111010101001000000111111011010101010101011111100
00111111000011100011100011000001001111110001010101010101001001000011111101000111100101110101001000111111011101010101010010111101
00111111010101111101010000110001001111101110001011100000110001010011111101010100000001000110111100111111011010111000100011110011
00111111011100011100011100010111001111101101010101010010111010100011111101011101010010101100000000111111011010101010101010101100
00111111011100011100011100011011001111101011101100010001000001010011111101101000110111010000010100111111011001110110001000011111
00111111011100011100011011100011001111101010101010100111111011010011111101110111010100101011101100111111010010101010110010011100
00111110000101111011010000100101001111101111111111111111111111100011110110001010110110001111001101000000000000000000000000000000
00111110110000101100111000000000001111101011000000110111000001010011111100011011110011101101100000111111100001100101011110111100
00111110110101010101010101010100001111101001010101010101010101000011111100110001111001011111011000111111010000000000000000000001
00111110110001110001110110001000001111100101010101011011110100110011111100101101100011111000010000111111010010101010100111011011
00111110111111111100011101100101001111101111001001110100000000000011111100111001001100100011000100111111010111101000110010110111
00111111001010101010100100011101001111110000101010101001111010000011111101001011111011010110001100111111011111111111111001110101
00111111000101010101010111011111001111110000000000000000010000110011111100111010100100111101000100111111011010101010101011011000
00111111010101011110011111110111001111101110010001110001101100110011111101001110000010001100010000111111010111111011110001001100
00111111011100011100011010000000001111101000000000000001001111100011111101111111111111110000000000111111011010101010100101110010
00111111010111000111001011001000001111101010101010101011110000110011111101011101010010110001100100111111001111111111111111011100
00111110110101000011010011100111001111101001110011001111100110110011111011101111001000101111110000111111100101110010010010010010
00111110111110100100100110001110001111101011011100000000011100100011111100101110111010100010010100111111001101101000010111011110
00111110111000111000110111110110001111101101010101010110011000000011111100110001111001010001111000111111001101010101010110011001
00111110111001011111001010110110001111101001100011010101000000010011111100101111010000110011101100111111010010001001010011111111
00111111000111000111000110010110001111110000000000000000000000000011111100110001111001011110110000111111010010101010101010100000
00111111000111000000011001110001001111110000010010101010000010000011111100110101110000000101101100111111010101000010110000010010
00111111001000010111011011100011001111110000000000000010010110110011111100101111001010101100000100111111010001011000010000111010
00111111001111111111111110001100001111101111111111111111111110100011111100100000100010101100100100111111000010101010101011011010
00111111010001000000101100010001001111101111001111001111010110010011111100101110001011000110010100111111000100001100001111001010
00111111010011100011100101001010001111101101010101010100001000000011111101010000010001011100100000111111001000000000000011101001
00111111000011100011100011101110001111100101010101010101111111000011111100101101100011110100111100111111010000000000000000010101
00111110111111001110101011111010001111101101001011001010111110000011111100101011010000011000101100111111001110010000001011110101
00111110111000111000111001000011001111101111111111111110101100010011111100100100111000100000000000111111001101010101010101010111
00111110110101111110001101110010001111101111001011010011000011110011111100100001001001100010000100111111001010111110110101111001
00111111000100010101100011000001001111110000010111010110100111110011111100101010001110001000100100111111001111011111111100001000
00111110111100011100101010001001001111110001010101010100000000000011111100010111110111010100111100111111000111111111111101100011
00111111000101010101010001010111001111110000000000000000101011100011111100010111110111001111110100111111000101010101010101011010
00111110111111100110001100010000001111110010100110101010110010100011111010010111001110001001011000111110100000001001010001011010
00111110111101100110001001011010001111110101100011011011001110110011111001110000100001111001111000111110011011100101100011111010
00111110010001110010111001111111001111111111111111111010001001110011111011011000111110001011101100111110110000000000001110110001
00111111000100101110011001110101001111101000101110110110010100010011111100110110001111100110011000111111001111111101101110000001
00111111000101010101010100100110001111101001010101010101010001110011111100111010100100110001011100111111001111111111111111000001
00111110111000010110000010100001001111101110011011101110001100110011111100100011001111011101111100111111001011010001011010011001
00111110110001000010001111001000001111101100011101001111101000110011111100001111111000111000001100111111000010000110110100010110
00111110101110001110010000100010001111101101010101010101000001100011111100010111110111010001110100111111000101010101010100111000
00111110011001100111011011000110001111110001010101000110110111010011111010000001110001001001010000111110100011000111110011010100
00111110100110000011111101110110001111110010010101010110110000000011111000000101110000101011111100111101110110100011111010110000
00111110101110101001001001100001001111110110010000011110010000010011110110110111110110011001111000111101110011000010101110001010
00111110110001110001101100011111001111111000000000000000100011000011110110101101100110001110101100111110000000000000000111001101
00111110101010010101000100100110001111111010011001011000011001000011111000111111100001111001000000111110010011010001010100101010
00111111000101010101010110000010001111101010101010101011101011110011111101000111100101111011110000111111010101010101010010000010
00111111000011100011100011010111001111101001010101010110101010110011111100101001001110010010101100111111001101010101010100111001
00111110111100011100010010111000001111101011111111111111110000110011111100010111110111001010110100111111000101010101001111101110
00111110110001110001110001110010001111101011100011100011100011100011111100001001011001101011000000111111000000000000000000000001
00111110100111000010010100001100001111101101010001000011011101110011111011000011111011000101011000111110101100110011000001010110
00111101101010101011101000010111001111110001010101010101010001100011110110001010110110001101100100111101101010101010001010011010
00111110010110100001001011110110001111110001111111111111111111110011110101111110100011011011110100111101101010101010101010101001
00111110011101101000010010111110001111110001100011100011100011100011110110001010110110001111001100111101001010101010101010101011
00111110101010101010110001100111001111110110101010101010101001110011110110001010110111001100100000111101001010101100001110111000
00111110011001111101110010011001001111110110000110111110100110000011111000001000101011001010001000111101111101110111100010111000
00111111000000000000000100000001001111101000000000000010110010110011111101000111100101111010101000111111000010101010110010010011
00111111000111000111000011011100001111101101010101010010100110000011111101000011001111111111011000111111001101010101001101000101
00111111000000000000000101000101001111101010101010101100101111000011111100100000100010011000101000111110111010101010111000100011
00111110101101011111110111011110001111101100011011111101001111100011111011011111100000001010100000111110110010001111110110011011
00111110001010101010101010101001001111101110001110001110001110000011110110100001111111010001101100111101001010101010101010101011
00111110000011100011101110111000001111110001010101010100001111110011111000011100001011001101011000111101001010101010101011101110
00111110010001110010000011000101001111110001010101010101100101110011110110101101100010111110100100111101001010101010101010110101
00111110100111000111000010001110001111110001010101010101011110010011110111110010111101111111100100111101001010101010101010101100
00111110100101111011010000100101001111110011010101010101010101000011110110101101100011110011000000111101001010101010101010101100
00111110101110001110001110001101001111110100001110001110001110000011110111110010111110111010100000111101110001110001110001110001
00111111000010101101110010101001001111100110011100010110011001000011111100110001010011000100000100111111000100110100001111000110
00111111000011100011100000101011001111101010101010101000111011100011111100110001111001100010111000111111000101010101010000010000
00111111000100001001011110110100001111101011111111111111111111110011111100001111001011111011101100111111000000000000000000000001
00111110111111111111111010000101001111101010101010101010000110110011111100000010001010111001100100111110111111111111111010110101
00111110100000000001110101101101001111101101011111111100100100010011111001011111000011111100101000111110010100000101000101100110
00111101011000111000111000111000001111110000000000000000000000000011110110001010110110001111001000111101001010101010101010101011
00111110100001011100001000100101001111110000110101111001001111010011110111101000110111100011001100111101011001011100011010111110
00111110101010101010100010000110001111110001111111111111000101000011110101010000010110000110110100111101001010101010101111011100
00111110100111000111000000100111001111110001010101010101101101000011110110101101100100110101010000111101111111111111001110001110
00111110011000111000111000110111001111110011111111111111111111100011110111011010001100000101100000111101101101101101101101101110
00111111000011100011100010000010001111100101010101010110000010100011111100101001001110010001101100111111000101010101010011111001
00111111000010111110011001011011001111100011010100111110011000000011111100100100111110100011001000111111000100000000010110001100
00111110111100000001010101110000001111101010010001111100001101100011111100000101010100001111000000111110111100111000001100000010
00111110101110001110010100010110001111101011111111111101000001000011111011100001101001001000100000111110111111111111111101000111
00111110110101010101001111110110001111101001010101010100110001110011111011111011101010010100000100111110111010101010101101111100
00111110101000111100101101000000001111100110001001001100001101000011111011100001011010110000001000111110111001011110010110100011
00111110011000111001011001101011001111100101010101010010010110000011111010101101100101000010011000111110110101010101010101010000
00111110101000110110101000000001001111101110001101001100101101000011111001111100111111100010010000111110001101001000010110100100
00111110010101010100111111111110001111110001011011100111100100000011110111000001010001101001001100111101111100110110110111010111
00111110010001110001110111000001001111110001010101010101100111110011110111010000010001100010010100111101111111111111111111000010
00111111000011000000100010011111001111100011001001010110010100000011111100100100000110110010111000111111000011111101110100100111
00111110111100011100101000101101001111011010101010110010001001000011111100101101100011010111011000111111000101010101001111001100
00111111000011100011011100001111001111100000000000000011011110010011111100010011100001101100100000111110111111111111111111100010
00111110110001011001011010110001001111101000110001011111101100000011111100000100001011000111101100111110111011011011010001011111
00111110101010101010101010101011001111100111000111000111000111010011111100001101101111010111100000111110111100011100011100011100
00111110101010101010101010101011001111100000000000000100111011000011111100000010001010101101010000111110111111111111110101000010
00111110101110001110001001111011001111100101010101010001110101110011111011111011101010001001110000111110110101010101010110100001
00111110101010101010101010101011001111100010101010101010101010110011111011110000000101110010010000111110110011100011100011100011
00111110110001110001100111111010001111100111111111111110011111010011111011011000111100111110010000111110110000000000000000101111
00111110011000111000110110101000001111110000101010101010010001010011110111110011000001101110111100111110001010101010110000010110
