00000000000000000000000000000000000000000000000000000000000000000000000000000000000000000000000011000101000101010001100000100010
00000000000000000000000000000000000000000000000000000000000000000000000000000000000000000000000011000111010110111011001001111110
00000000000000000000000000000000000000000000000000000000000000000000000000000000000000000000000001000100011000100100100001100100
00000000000000000000000000000000000000000000000000000000000000000000000000000000000000000000000011000111011110010111011100100000
00000000000000000000000000000000000000000000000000000000000000000000000000000000000000000000000011000110011001001100001001100110
00000000000000000000000000000000000000000000000000000000000000000000000000000000000000000000000011000101100011011111011100010101
00000000000000000000000000000000000000000000000000000000000000000000000000000000000000000000000011000100010001111101011101110100
00000000000000000000000000000000000000000000000000000000000000000000000000000000000000000000000011000111001011011001010001110010
00000000000000000000000000000000000000000000000000000000000000000000000000000000000000000000000011001000001001001100110110010100
00000000000000000000000000000000000000000000000000000000000000000000000000000000000000000000000011000110000010001010111010011110
00000000000000000000000000000000000000000000000000000000000000000000000000000000000000000000000011000101001000111111101110110010
00000000000000000000000000000000000000000000000000000000000000000000000000000000000000000000000001000101101001101001000010101101
00000000000000000000000000000000000000000000000000000000000000000000000000000000000000000000000011001000111100111101011000001011
00000000000000000000000000000000000000000000000000000000000000000000000000000000000000000000000011001000000011000000001001000011
00000000000000000000000000000000000000000000000000000000000000000000000000000000000000000000000011000101111110000111011011000101
00000000000000000000000000000000000000000000000000000000000000000000000000000000000000000000000011000100100110011110001110000101
00000000000000000000000000000000000000000000000000000000000000000000000000000000000000000000000011001010011001000011000000010101
00000000000000000000000000000000000000000000000000000000000000000000000000000000000000000000000011001000100110101001011010001010
00000000000000000000000000000000000000000000000000000000000000000000000000000000000000000000000011000100000110010110001001111101
00000000000000000000000000000000000000000000000000000000000000000000000000000000000000000000000011000110010101110110010110010011
00000000000000000000000000000000000000000000000000000000000000000000000000000000000000000000000011000100000111001110111001100101
00000000000000000000000000000000000000000000000000000000000000000000000000000000000000000000000011001000011011010101001111001001
00000000000000000000000000000000000000000000000000000000000000000000000000000000000000000000000011001010001011110101011101100000
00000000000000000000000000000000000000000000000000000000000000000000000000000000000000000000000001000111100000110111001111001111
00000000000000000000000000000000000000000000000000000000000000000000000000000000000000000000000011000110010010001011110010110001
00000000000000000000000000000000000000000000000000000000000000000000000000000000000000000000000011000100010010101011100111101100
00000000000000000000000000000000000000000000000000000000000000000000000000000000000000000000000011000101100111110110010100110101
00000000000000000000000000000000000000000000000000000000000000000000000000000000000000000000000011001001001000100110010001100110
00000000000000000000000000000000000000000000000000000000000000000000000000000000000000000000000011001000100100010110010100101010
00000000000000000000000000000000000000000000000000000000000000000000000000000000000000000000000011000110010011101111110100110100
00000000000000000000000000000000000000000000000000000000000000000000000000000000000000000000000011000100110101100000111010110100
00000000000000000000000000000000000000000000000000000000000000000000000000000000000000000000000011000110100101110001001011011111
00000000000000000000000000000000000000000000000000000000000000000000000000000000000000000000000001000110100000101010110101000010
00000000000000000000000000000000000000000000000000000000000000000000000000000000000000000000000011000100011100000111100011000010
00000000000000000000000000000000000000000000000000000000000000000000000000000000000000000000000011000110100001011110100011110011
00000000000000000000000000000000000000000000000000000000000000000000000000000000000000000000000011000110000011001000110010101101
00000000000000000000000000000000000000000000000000000000000000000000000000000000000000000000000011000101011101100100111110101001
00000000000000000000000000000000000000000000000000000000000000000000000000000000000000000000000011000100011000011110011111010000
00000000000000000000000000000000000000000000000000000000000000000000000000000000000000000000000011001000110010011011101000101101
00000000000000000000000000000000000000000000000000000000000000000000000000000000000000000000000011000100010011001000111100100111
00000000000000000000000000000000000000000000000000000000000000000000000000000000000000000000000011000100001111111111101010011111
00000000000000000000000000000000000000000000000000000000000000000000000000000000000000000000000001000100001110010001000011111100
00000000000000000000000000000000000000000000000000000000000000000000000000000000000000000000000011000100101001011111011111100010
00000000000000000000000000000000000000000000000000000000000000000000000000000000000000000000000011000111101011011000100101011111
00000000000000000000000000000000000000000000000000000000000000000000000000000000000000000000000011000101100100111000110001111111
00000000000000000000000000000000000000000000000000000000000000000000000000000000000000000000000011000110000000000011100110011010
00000000000000000000000000000000000000000000000000000000000000000000000000000000000000000000000011000100010110000110000100011111
00000000000000000000000000000000000000000000000000000000000000000000000000000000000000000000000011000100110001000101000011001011
00000000000000000000000000000000000000000000000000000000000000000000000000000000000000000000000011000100000110111000111001111001
00000000000000000000000000000000000000000000000000000000000000000000000000000000000000000000000011000100011101101110101100110100
00000000000000000000000000000000000000000000000000000000000000000000000000000000000000000000000011000100011010000111110011000111
00000000000000000000000000000000000000000000000000000000000000000000000000000000000000000000000011000100000110010000110001111110
00000000000000000000000000000000000000000000000000000000000000000000000000000000000000000000000011000111011111011001100011011001
00000000000000000000000000000000000000000000000000000000000000000000000000000000000000000000000011001000100110110011100011110111
00000000000000000000000000000000000000000000000000000000000000000000000000000000000000000000000011000111000001100011010010110100
00000000000000000000000000000000000000000000000000000000000000000000000000000000000000000000000011000100010011011001000010101110
00000000000000000000000000000000000000000000000000000000000000000000000000000000000000000000000001000100101101010000100011000100
00000000000000000000000000000000000000000000000000000000000000000000000000000000000000000000000011001000000010011101111000011010
00000000000000000000000000000000000000000000000000000000000000000000000000000000000000000000000011000101011101100100111100010010
00000000000000000000000000000000000000000000000000000000000000000000000000000000000000000000000011000100000101001011010100100010
00000000000000000000000000000000000000000000000000000000000000000000000000000000000000000000000011000100110111010110000101001001
00000000000000000000000000000000000000000000000000000000000000000000000000000000000000000000000011000110010101000000100110111001
00000000000000000000000000000000000000000000000000000000000000000000000000000000000000000000000011000110100010110010010010101000
00000000000000000000000000000000000000000000000000000000000000000000000000000000000000000000000011000111101001110110001111000011
00000000000000000000000000000000000000000000000000000000000000000000000000000000000000000000000011000100010110101110001101100110
00000000000000000000000000000000000000000000000000000000000000000000000000000000000000000000000011000110111001111000010100010010
00000000000000000000000000000000000000000000000000000000000000000000000000000000000000000000000011000101110111111010111001110010
00000000000000000000000000000000000000000000000000000000000000000000000000000000000000000000000011000110000010011011001110001000
00000000000000000000000000000000000000000000000000000000000000000000000000000000000000000000000011000101110100000001000111101001
00000000000000000000000000000000000000000000000000000000000000000000000000000000000000000000000011000101100011010011011111011111
00000000000000000000000000000000000000000000000000000000000000000000000000000000000000000000000011000110111110100111100000101110
00000000000000000000000000000000000000000000000000000000000000000000000000000000000000000000000011001001010111111101110100100001
00000000000000000000000000000000000000000000000000000000000000000000000000000000000000000000000001000110000110001010011101110010
00000000000000000000000000000000000000000000000000000000000000000000000000000000000000000000000001000100010111000000001001110011
00000000000000000000000000000000000000000000000000000000000000000000000000000000000000000000000011000111001011101010110001110000
00000000000000000000000000000000000000000000000000000000000000000000000000000000000000000000000011000111001000000101010101110111
00000000000000000000000000000000000000000000000000000000000000000000000000000000000000000000000011000111101000001010100001001101
00000000000000000000000000000000000000000000000000000000000000000000000000000000000000000000000001000100011000111101010001111100
00000000000000000000000000000000000000000000000000000000000000000000000000000000000000000000000011000101011111111110100101111100
00000000000000000000000000000000000000000000000000000000000000000000000000000000000000000000000011000110010100000101001011100111
00000000000000000000000000000000000000000000000000000000000000000000000000000000000000000000000011000100001100100111001110010000
00000000000000000000000000000000000000000000000000000000000000000000000000000000000000000000000011000110010101001110101011000001
00000000000000000000000000000000000000000000000000000000000000000000000000000000000000000000000011000110100101110000011110000010
00000000000000000000000000000000000000000000000000000000000000000000000000000000000000000000000011000111010101011010101101111111
00000000000000000000000000000000000000000000000000000000000000000000000000000000000000000000000011000100000111100110001000010110
00000000000000000000000000000000000000000000000000000000000000000000000000000000000000000000000011000100101011100011110110001011
00000000000000000000000000000000000000000000000000000000000000000000000000000000000000000000000011000100000100110111011111010000
00000000000000000000000000000000000000000000000000000000000000000000000000000000000000000000000011000100011111010011100110101100
00000000000000000000000000000000000000000000000000000000000000000000000000000000000000000000000011000100010001000010001011101110
00000000000000000000000000000000000000000000000000000000000000000000000000000000000000000000000011000100011001011001110011000110
00000000000000000000000000000000000000000000000000000000000000000000000000000000000000000000000011000011110000000000010010111000
00000000000000000000000000000000000000000000000000000000000000000000000000000000000000000000000011000010000110111001101001001110
00000000000000000000000000000000000000000000000000000000000000000000000000000000000000000000000011000011000101111010011110100001
00000000000000000000000000000000000000000000000000000000000000000000000000000000000000000000000011000011101000010101010101010110
00000000000000000000000000000000000000000000000000000000000000000000000000000000000000000000000011000010000101100000010000101111
00000000000000000000000000000000000000000000000000000000000000000000000000000000000000000000000000111111010101110101101001101010
00000000000000000000000000000000000000000000000000000000000000000000000000000000000000000000000011000001010110111010010101011100
00000000000000000000000000000000000000000000000000000000000000000000000000000000000000000000000011000011010101011111000100111110
00000000000000000000000000000000000000000000000000000000000000000000000000000000000000000000000011000001100111100101011100100000
00000000000000000000000000000000000000000000000000000000000000000000000000000000000000000000000011000000100111111101111100001100
