01000000001101110111001010111011010000000110001111001101100011000100000000101000100010101001101101000000101101100011101111110001
01000000000101001100010011101101001111101001011010101111011011010100000010011101000010001101100001000000101010101011110100100101
01000000100001010010101011100101010000001000011010000010001100100100000011000110111101011011001100111111100010111100111001101000
00111111100100111111101111111010001111110010011111011011100110010100000010001011101001011100011100111111011011010100100100101000
00111111000011110011110110011101010000001101101110110111111000010100000001101000001001011001100100111111000010010101010010110101
00111111010101110000101101101011010000001101100001100100110101000100000000110000110010100111001000111111101100101111101000100101
01000000101000100000000111010100010000001101101100001001111111000011111100000100101111110110100101000000101110010111010001101110
01000000001101010101010101111110001111011000011001001000010100010100000000100110111100010101001101000000101111100110001100111001
00111110101011001111110000101011001111111010101111000001010110110100000010100000000100110100010101000000101000101100111010000010
00111110110001100000110100110100001111110101010111000110100000110011111111000001010100001101111100111111011100101101011110110000
01000000100100000101001100010100010000000100110010111000110001000011111010001001011110101100011100111111001010000110011110001011
00111111010111111000001001000110010000000111001101000011100110010100000010000111011011001100111000111111111101101101110110011000
01000000110111011011110010101100010000001100001010101101011001110100000001010111000110101000000000111111010000010101000011000001
01000000000001001110000000001101001111111010011101001000001100100100000001011101110011001001101100111111001010000100110111001011
01000000010100010101101000010110010000001100100111000001111110110100000011010101100010111101001101000000100111101100111111010110
01000000100100010010101011110001010000001011011000000100110001010100000010000110001010111000111001000000100101111100111011100101
01000000101010000111001011010101010000001000101000011110011100000100000000010000010110110001000101000000011110111100010111010111
01000000011111010000110111010011001111110001100101100101000111110100000001010011011110100101000101000000110110101010101000001100
01000000010101111111100001011100010000000001101001011100101100100100000010101011000001000100100001000000101111001100001011101110
01000000011101000000000100000100010000001011001110110010100001100011111110111110010000111011110001000000000011010100110010001010
01000000100000000001100010011001001111110100011110011101000110110100000000101010101010001010101100111111110000101110111001111010
01000000110101001000001010001011010000001100010010001110001001100011110011000100101001100100011101000000110101000110001000001001
00111111110011010100010011000101010000000000010000001000110101110100000000001111011100001010100001000000100100111110111101110011
00111111100011111100001000011101001111111001000000001111111011000100000000110001011111001101100100111111001011010001011111011001
01000000101000111000100101010110001111110100111101100001001100100100000000101110001100001010111101000000010111101110000110101011
01000000000100011101101111101001010000001011000010111111001001100100000000000001000010001111010101000000000000000001100101000010
00111110110001000000001001010111010000001100100111011010010100110100000010001000111010010101110001000000101110110011100100000101
01000000100100110011101101101011001111111001100010001100111111000100000011011111111000110010101100111111011000010111001010001111
00111111011000101001101001001101010000000000101111001110000100010011110101101100011101110111000001000000101110000110011011101010
01000000110000110010111111001010001111111000110011111011110110010100000000111010100011010010101001000000110110111011010101010101
00111111011110110010011100011101010000000000011001001110011010000100000000110100110011110000111001000000101111110001100011001110
01000000100011100111101010010111010000000011111111001010100011110100000000000010000000010000101101000000110001100001001101100000
01000000110111110000011010101010010000001010001101101101110100100011111110001110000101010011010001000000110111110101111100001000
00111111101101010101000100001100010000001001110100000110000011000011111111110100101111101010101001000000011001111110110111101000
00111111100000100010011001001011010000000011101110110010001010000100000001000110111110110101001000111111101001101000110010101100
01000000101011100010110001001110001111111100101000110001111011100100000010100001111001111010011000111101000111110010101000001011
01000000110100011110010110010110010000001010000101100100011011010011111100001011111110100011011001000000000111010000101111100111
01000000110011111110010010101111001111111011100010101101100000110011110100010011010001101100110000111111111001111111000011010110
01000000101011110001010001111101010000001101000010011111100000010100000001100010011001001110010000111111101101101010010011110101
00111111010111001000110100101000010000000000011011001101100101100100000010001101110111110111010100111111101110101111010010111010
01000000110011010000110000011100001111111100101001000011001100000100000011000111001111110011111101000000101000000101011011101001
01000000011001011111000110000101010000000011110000111100111100010100000000000001010011101011011100111110100101110001111000100000
01000000100011011000011110001111001111110111100101001100101011010100000010000000111111101000001101000000011100111110101010110101
01000000101010010001001110100001001111111110000011000111010101110011111110110111000100011101101000111111100110001000101111100100
01000000100101011100001100101100010000000000110111001101001110010011111110001000001111011110010000111111001001001011000010111011
01000000000101010001100111110110010000000100110000100111101000000100000000101100100111000011000000111111100010011111101011011110
01000000010101000101101011010000010000000001000001101100100011010100000000010110011011011110110100111111001010110101000001100101
01000000100010001001000010000110010000000100011111001000011011010011111010010100110111100010001001000000101110011010110011000111
01000000001101011110101000011001010000001100101011111111101111000100000000011010100110101011101101000000101101001001111110011110
01000000101101101010110111101011010000000011011111000000011000000100000011010110011110000110001000111111100000000101100000111101
01000000001101100011010001101100010000001000010001010111001100000100000000110100111110001011101000111110101110111101000111010110
00111111110111111011111101011010010000000001110101011100000111000100000011011110001101011111010100111111001001001101011010000101
01000000101100010011111000111000001111110011101000011001101100100100000010011110111010000110000101000000110010000101100110101011
01000000110100011000011101110001010000001000110000110010111110110011111111110100011101011001000101000000110011001111011111101000
01000000010111110000100101101110001111110101101100101110000001000100000011000010000000000001000001000000011010110000011001110010
01000000110110001110100111100001010000000110111010001100010001010100000010110011110101110110001101000000010111011000111011110001
01000000100101001010010100110001010000001011110110010110101010110100000000000000010011110001100001000000100011110001110110110011
01000000000110110100101100011101001111100010010011101100110011100100000011010000110011011000011000111111011000000000010010110100
01000000000111010000001010101001010000001011111001100011001011110100000010111110110110001100001100111111011111011111111011110110
01000000010011010110110101101000001111111000011000000100110000100100000010110110010101100111110001000000100111111000010010001100
00111111000001110100011101000001001111111111000111101000100010100100000010010110010100100011010001000000000110110001100011000111
00111111100000111001001001101100010000001001111010101010101110010011111110001001111100100001010001000000101111001110100000110100
00111111110101111001101000100001010000001011001000010011101000100100000001001110011100100110000101000000100001010111000110010110
01000000110111000011011100100010010000001011100110100000100100000100000001110111100110011000000000111111000010010011100111111000
01000000101111001001110011100100010000001001011010111101000011110100000011000011100111000011001100111110111110110001001001100101
01000000000010100011010001111100010000000101111110001001001011000100000000100100110111110011100001000000110100001111001000000110
01000000101110000110000010011010010000000111010011110011000110110100000000111001001010101001101101000000101110110101001101001000
01000000100010011110111110000111010000000100011011000100110100110011111100011010000011111000111100111110100001111000110110110000
00111110100100100101001111100001010000000100111111001110111010100100000010010000110011110001110101000000101011011001100111110101
01000000101010111100110000011001001111101100010001111000110111100011111110100001100011001010101001000000110101000100111101110001
01000000011101101010111110110100010000001101101010000001111110100100000010010001111100110110110101000000011100101110010010010110
00111111011110110000010111100110010000001011100000110010001111110100000011010001001101011000001001000000110100010111101011111100
00111111010001101101111110111111010000001011100001101111111000000100000001100011000000111110000000111111000110101010010100101011
01000000001111011100010101011100010000000000000110101011111111010011111111010000111110110001101101000000001110000011010011110110
01000000000010010000101000011001010000001000001111100011010000000100000010001000100111100001111101000000110010011111000001000001
00111111101100011011101011100011010000001011111000101001011001110011111111010111011101100010001101000000100111100010011110110000
00111111001110100001110011010010001111111110101101010100101111000100000000000110010000101101100001000000110110000011011011111000
01000000100101010110111101101011010000000110101111111011111011000100000011000010101010101101101001000000000111111111110110000110
01000000101011011101110110100111010000001001010110000010110000010100000010001010000010011100001001000000101110010011010011001110
01000000010000110001010011001101010000000111001100000101110000100011111111100010001000100111100001000000010001101100000010000001
00111111110101010000000100011010001111111011000110110100000000000100000000101111000111010100110001000000101100001000100011010100
01000000100000010111011001010001001111110101100000100110000101100100000010111000101010001111010001000000101101111111010100101111
00111110101111011000110010101111010000001100000110010100100101110100000001001011101001100100011101000000000100111011000000110101
01000000100100110101000101011110001111111100101110110010101100100011111111000101001110001100011101000000011110100110110010111101
00111111101100011110100101011001010000000100001111000010110010000011111110011101101101110101011101000000110001101111000001000010
01000000110110110010111100101001010000001001010101101001000000100100000010001100111110010111000101000000101000011101010111001111
01000000100001100001010100001100010000000010100011001100101100000100000001011110101101101101100001000000011010001000011110000100
01000000000110110010001100010110010000001001101010001001011110010100000010100101101111000011110101000000101010110110101101100111
00111101100010001100010000010011010000001000011100001111111100000100000010100110011101010111010101000000101100111101111011111111
00111111110001100010010111111010010000001010110011110000010110100011111110101010011011101110011001000000101111010001111010011110
01000000001001111100100010110100010000000011011111111000001110100100000010000100001011110111011101000000110110101110111111110100
01000000110101011101011101001000010000001000010110101101000111100011111101100111111001100101010001000000100110111110010110101101
01000000010010110100101010001010010000001010111001101000100010110100000010011110100000111110010000111111000010000011111101000111
01000000010011111110011000001001001111101111111110011010000100000100000010100010111010110110100001000000110011101101010111100011
01000000000100010100001001010100010000001011111100111001010110010100000001001010111001111011100001000000101111000000101000101000
00111111001110010011000000001101010000001001101001010110101011100100000011000100001010000110111001000000101101101011111010001000
00111110011001101001100011010100010000000101111000011010111111110011111011011111000011000100000001000000100100111101010111101101
01000000001101100110101000010101010000001010101011100111010000000100000001101100101111010010011101000000001011011001100011011000
00111111010001001101000110011010001111111110100110111011011011010100000010101001101001001100000101000000000011001100100100000101
01000000100100010001101000001111010000001011011111111001001001110011111010111011101111000111110101000000101000110100010001100100
