449a0502209a04602a45885262a0096489a2545100218690811090089566526514921642046061900a968611a921966256684208428540695416851aa0aa8044150a261869a2aa22a90568a42658662211485a18966a8a600662a1582004556495aa8569a60450588aaa496252a82680161216890042a4899054a56a60a118406480a4091a2818484191628490081008982910166605090154622506515168a8a960554668162895a26659a8a844026a9864648a66a8650a8012a65590a210956965868061a104514244a8a068549185255016052644015486828a8a9128a2491654060666619a061925a55094899409804288261a6950885669 124a9290551a49285204aa452994549005500a84185485299a24a904554920052050a1a2aa4604a155960951462020519186446406a942469805484a4592685a6a046408298512909449496892040568660641568099469095061aa129668a21461251115a1264085520a240804869a092255a186a422655a54919958008495196550209155102a999144000121aa66a64804966a2945164a61881099982248a9540094666616860895a69a905816485a90a01a84219a29825229625184a412851809864190612906942490999981128a40480a90a52aa2a60649996086290159291442018a8a22a9aa1051899041115a4a59025452058904a55 8462281418480481a6a646106410a1256442294909829559204008448966a5602a89546012aa95086a2468646a96596a115a8019aa02aa484606aa441906a09496024221244460a960569a662a829442214608428490888811489012aaa5aaa180440020809214a094a08555a95289609908a52a9664a24145880899964a942251486461884664261421029499a4a56454450108604a9a142009062946900021288a22160854440554aa1654949998a22946008918629a2a8222114402015a261545628006a2482408691688868946019a4999464848a292966950225a2618a468a99619aa1091124544a85a498019464588956056486a901299 846aa1a251644204aa405480860250a4112994294821840a0a9aa140aa985960812a2a1aa11a2aa0a2015a820640a9060988520524149018515144026aa208a9605a160a882086a5081484a4010924505851a1118865524161988000128590051018946a2016906668840a44a2994265865219a09014508a2a698128864291aa9555982521268485a6690618255928a648060850152812688408815a5896402548090485a0044a902aa919160299a18964a18512524550454446296499a6988546510558660910124a4818402a81546122661964845868890490a151460626155096596942a956895616aaa2a12086516908a14aaaa904985410 6004844a68460620a99086682415592912040682a85111098620616a2261461896a84108289a9a95a428a861aa4954a854025545a6411a1162556914500414425856556409652256856a5a22a54a56406199651090649800650a04962a468a904508285651882a805084024a6821585a665264a448a45012a1929581685189a88460a60a041a9926654598596006aa1620929aa81952a8564942592264298850a859551199a680010104a90618a4094822851aaa941898002a569a85a696564a6a658a02294a205162458461508aa24a50642a494a0aa51802222201495004598550298a94456296a904402595255986655821aa82416a8642a4 a526a10a8199aaa9a50649950129a0424a495a090a54a692985686552094a208856866588a25a45054910521a219956a219aa28465a600548969a400686a9206a19544a298251a96902a095a01a9109255a25a681204164240a5184066a1a511868829251a482808610a19296846a9195512611442aaa041541598845aa88a095145a1a6a8841945549689594201488a89a2aa069668a025164104514986401aa82091284422089195445a992a011119541502168522646196404040a9686189658a49248062046520450a214a28000a020456524012016650448262a52959a2016962128a60612626559442a9181a612a6600645125a9049226 229625240051505a0a4a68081a9049164a418112a0890529149650a56a462841aa894a2aa6804252641212208814542a08552664aaa249848925885090a5081469118aa196424421a544056544584590224441841894a0998a5980214655a9aa21854a84164811221896189486268a406001456902a89012120a9825204155956415a82564aa8aa51986599615090562928626a661068624a8598a918609160416a2241854906a144050508a2904285084a6aa98185064a96162aa09600844921122a5951644149126900158a56651a159a2560816604626066a824064222615522086098918209465a01448a2121910401641a8452950aa118 469254445504a90249164509015695818088a512a416854052a160a1884a69911a88846a90999669840402402198862006a96419080aa28225245102a41145115a90208619285048454694651182814099266254a6190a92a1299aa9112064610295a0a589499062644291a6a25922441100099520660494182944085884499829915462a4a62456a0091800200a280966819a1a942048964689600118168658408458056a18a4268494a44a49a2255902a66218186010101122096a014aa84161882566a690016840129685a9a95222a8210698668450124a121262659219a21a1440692aa82a6608201a44656595a61a284064645685545959 61a02586042a44a015a49868a6145185825a4a504144a12581518a4284929020a0884a80559840606a8848040622490a096aa1aa55026004444624905291089562226059915252a491a804516aa5869a212062924a69969100a98616a84a4188a5a58aa814120811168a116648805a2860564a018a1a84aa1606508151a49588a056158a4a091a62961656a56215818426a8a0a056069124269526415469a828a0142aa005899450548416018588801566a465694191a1255a92a0548854816019aa510991611aa6550600562968640584262aa10255101514059611909111614861a9a94015a221161099955020a922254a9952425188026a2a 5064050a81426aa615859008606118410249606a48440a4098220420a64245446109a501841a42845a61221661025840586a86628825881122559290511518022688aa910412816118510819a52595242669a958109a056406a102a0114209a96a8a26065264a2948864598a40a989a148461202a592295896966060a862580941a20020896aa4a529a0998a061209422290a62555165956224455581a51245000202a6228a900196926014951a14aa9a02012a050a904aa9a8014182110aa992a805881a54042601a09182880a961060991251164669a12895aa125a08642122aa5899a06a805412516598861a559aa54998426640026808284
aa1aa49101809105448a0a021a9a614145589202226a16424268295108041481291108a22950666540919a85aa9a525895a510a6a49988144558298a66402806655144419218619689869468164640a9100605962521822a859808812882424101a242515021456a6246568605a4819454922221454246545688aa928916856151819408944111895aa2120665969560452a99a61526448918001640918a90a64225882002519226800051a42a090606a942442956a28428a1420506a66691660a982526906469492aa5858626085a825422190580598952845162622602140454a99052a48262a02509488555aa6495982a0686a55a50a6551 889a56a6a69586901656a64661695405995aa909244a885a182906a1929546906866a8166826504602a014626260aa148010510585406a518010a6908406a094555649922454059252692a858a99545452148a66905029a4246960629a164826415968848205012690155602019812a9601112192a96142052112020068188a56645254841565405145028969244122545856905a6620050864541950a488125992514160515245a994a2452469aa608522568a81211890062455564a1050000529484a682060045829841980051190159919940689119016a94081685949a415991510a1995a11069a485a5525651a65212448292058a452a54 546111110082010891819068546959621569642015492618592069592616995540668a09a6895154619680299484a8064506a54822009a890948962809686869282846122466946900106592a05a00a450250651626949459a608851aa21511054412aa20a9216552950258a182905116a61a8209496a9a9455981881868409654a08804226a0259845180961646909126892a805a5462191265556866a666805616806a6624910a16169045921888260804166408a2095618654941805a882a14a22a0288a60a969a584a51442580190296a4669595828006642291802624a266695165091a1011162a4804a4109608a268a886485006900460 28161aa166296588240104a84924a0108969189a665259425aa606821aa0586925681069061520644850888aa041400565640000a896522aa220a114840a6682294a664864a54a52a425810252811a8185182990410490916449684108a2518211206291582128506420002685882448498544464445a106845aa64a18211616499680898080a18a9a44889a106a11809216142886008899561a2a151489a4a5a00096a6560050612885959814a859625a06a49640259015581849a04a2059409615a010645229924862242a2842129a99906809469258465980980569455046994245069a50456125aa1218819a569a9195254194808a655022 2a9096a545a1629091884544649651558585429051a95841a0828a080649188a089148858a2596968490a8590554005445255914688a20a080569a6852595295544a5809242a4a21521444620590109a2908a2422615825a5244214900a02588906941a855919a581a19194524184942aa6108129549a25886a01900001491490660080a8856a4a61462024189991a09266608968140155901260090801922869252964a59606649a940165609055564891659888084168aa56519161a4662516a4216685264a118850889401a6488a4606160680024a56214a22680514150849686898a4516412a65685120681a01882620266a9806a910aa44 84469a56969104a95659825a108844544148501a84625285a24959680081a55a51056586288968a9a1682a5240a642058a2a202995206a0988486a915619558125211624241aa1a2464a2004620241062a49912a5a825a85259182a59508a8688062908a44a026899146a19155524a001120924a411456825652a8166952084286118885295545a00454a05226128aa6a6429285a2054202a9a22589a5a0562aa69a9054994a498962661a89948942510445a8912595145514051222a9805856a4aa5954a505199019825a5585a125946468825211aa81064940a850422469420910910a25509012a9964922010988a61008a204950024155502 a80aa46012a559492498aa244601222250140940026449a5524a494aa29896562a909929a19a8654684668112508500aa8a809144266a040a188005258002256160924862561210956a04a0a409a601512681a69a6189286684219a2694a99a46a9066a2596958526a1a900a1848592801aa295a618698a6150801005142a0a4561490141861a62a498044599060005158451948495410852288424481889a4498910a8141929996a20a00014251510621a6954146126a045a6600586620900881aa1581912224585668840aa9116a48804010a5129909854258289242a4000649826180959a015916552a98862481028902145299945609816 2a0501054650261a405549a40a410594094140000028024680145aa02585a04149299569a05848906994811054a985229040a59929a916968a9066a890442568145a94595914a824aa900608a2aa224580885a48094908044606680812911469400a65919a15405419012206859244a618a6a85144416141922299196286996550044129240425640688811849565448252260919a2694999856aaa28aa05a11a09146215852a02825a61005259a91a9541440a2a022540a812601849a588284248a001491910416550a4026624220669a48500a8a586145962015258890582588246009816248a695242949422411405462461a9946499a065 90649958984695246a4495108aa46a260610666986a850448059410a296a658168024aa65989955652a5942aa51486595860588626514aaa05014451855520699421056922809a2046aa94a9604058a6a1646610a216158a4464008806992aa8191686856128a081209290191085249124a4a068519186886291a088a4266051105801a454aaaaa5429124095244268281041a52261a4191159016998a1116a6440aa2a9419185000812415661202082aa8802a224482a85a51160a649a00825841a524816950511686645098086a2595155982215294840994408660a05414822a92145aa9122484a85888545241428a0a16115a42650560069 a8464a429a6015211a49a252955161a40862861a251a19a6911850411888a550142101229696681a940562880696998445891800a482a4681441659504604588904a964a66590021a499269a60a892425a66441a142606a2a886550226a4465512a90650014081156186a400a8018621a9a294250092918101058912869068a558960a086a4a1146690a6a15a649640a1508a42684298919611149011201662115641551a52021a8a8224159108a9229451958682511a00466a401a49828928081209a809a00091002a946418245411aa060215501894a16a56252956662896200945451aaa9652601988866429528546199291a166994694981
22124a012242aaa252459160166a0028526084245a2654425a492845202180a5014114961642652661216006a954a55662a958968852829204a866a92588001891a442aa011401464816a2560619815609a16948a65980191a40802a04165909a226642046258888680050080195655a8215264145a511a88961a691105589a5860482815529926829255a290918488618580aa9106658a04886941812114254aa01654150668259095a512a54696856654621901862a4254290280104895010a488652682aa9a1521a404121645a90804640269a4a451210064848a6099544841a1469a656a219a25059a81451680a64a868244a661052269a0 956464aa5915a865122260668061500a9642a14618aa912195a85526862628420024a9a8a06026409500629511498688245a64a09a0611214919401116aa220159169405164251452a802554a290a4190184a08526408a68a604885014924128669a18a0a6910954824694aa589119569416666a80042802a46259a802295941966118100a2624144a12952608812202a644821442581a496084254a5821112a5448814565a94685642520656191562541129816149a82045801a959248655969a5011969026149282212aa66861666004640846205a8a81024a4291940a110621916a08a02646a44126a145295009821a4901a550989a860228 6125899a2028292421050264a269605508698a8a6189604695a519a10994a60480a6692866109585952691aaa668a60518a2006a06868251150182921819851961a56925aa2a250698a621aaa95008a51266a8a90098a08028a490a959600252526216a8a82096420185058555925050699268482a04141a1a6198a1656412a600a44090a85290121999685991052a9654844289110186581006954a9904924181a128295664a64a105821a950011410940a892140951558200959145a65a162169a5084a9969462991292556824484211202641414616804445955860449a541aa4482a5601a260a616a182685122415a1856a05424a2989896 192566686a4122581a0a01550a5696848a050494652a44929a5aa52189a18501958a5221054694999062a28816481a2228925a6684108204aaa86a8a12aa84a49429904082a66a50155246aa5642249158950564a61590468551285481194a050600122402a9249504292029514566644812a060a8922681019209a25a818001a651668aa8200008614044962418a1092495120005406894490990a8525152a46a2024a5225a8225a588465568621498465a8a929418604a544964029986628290448525554262209009a06aa542109258a0441659a6a9661222566682910a9145012421a20a650959851a888620a2821288aa84449418619264 2850814428540518068056110425895124908995a0869856888852866182494204a42288490601a44856a60a6a0a2960890166421aa42849480aa1925511996951912a59468490590820a0180801850a92161454a94416498269418211a1906921164818264400660a225aa9696506099894490a2089512802582aa15615682929485415a018082852844151a6646a001946689504868a0a810455640995206259814152514a041595aa09911a6a18882696a0954166829a4a86a021a84026409a469829a4262510161a610085200062288489654505105a0152821a94a1154a8061645416445911824a90848a88a9842662152852569419428a 5192a19681940a921288a420298a622a12a99555a9219164055561a62966809814481151810445a2a28a11000612a1140825511599805449a81144988245a9002a99086450226969a84882014a52aa198a2998a509299159210659846140196121959295650a201812906608212a98814586142961a01400a46985a46648a48619154a0880809185195951a54522a9a9a505a29a9651112998210698a0482269a6810512249625229550a555929588696a088849a2014a056616666461840a525852215254269919090859482984a5564a9a6910500122a64086821890496a2a6448a20901624462689a24a2aa151646698a5888581802529126 494958455164411660959191864019aa89a25949659a1a415aa9aa8645902212659296995a01810442501a0951a10aa004a028018250996165666a451182250a44012855a241a01660a810018622586422854a1a080aa542065aa4a2a2608290019505a88960a0082266545119a05856522aa582890408a19408682a2654428805911561520089a918850a1a04646556845625599a200904a01588196a8888a94522a6a45048606588910691a68091899a200a44a420586216998899a128554a462a486a565508982580986a15a561582985a941166120080a5a596510061a04214682809485409889568a80012921129802640a9a264696a652 819a952801162568251425519aa000a5586409294651848142664a559898a4544055816166a265608a024820609280868a4568095651a4694566125661465901990a1656524556882042a9094442204245184428120928926666808958a4a01886100aaaa201155a104a815a8040924899256229588892185409924549691259596a841426504400846a99285056814a89a91060895645624652045645a49584656124648810945a6515148a115120415019624865248866a99699645291a62888248600294248852aa4850841a2264494889955882081144088920846095146114642116a6954468000a222645a2611aa0a1542289806588018 a86005809a52145588114892210929aaaa905421a96520198815498a240aa218a180441558814a58699842aa0aa259928569289104909059280122902469a58650648520581022980462252420111910868148865060a2902092551029159a50209149829060608a952405926a8008124829aa45a1012528248299864822814281609208221411a21a080a64122909a2649541428a21615a9204855861a689291901560a461481565a02105125582a85654088810a566a41140528145496682468014aa616809a8481119266a04a2298a50688a9a998898118061a8448aa2894618a9889060890029a1605924256581a5824969a2189a5002aa5 9661a5000065206268898291468a491825a2a11aaa08a4a8512685408a9aaa2982629665292988412548665922a8252a8a1028a4549152861aa9241a4a1625181a801861aa8984202684098089a2265a5a01659858245668a2a28081a40866a8811149aa0a94249268aa50a216aa09649219268211698a49046465a4896962095920a1a912a08a0589509564a4469124a9194094940aa160801a801916945a212562466285a90a028a490616401082846665a01985190406a2258884a4210586a62a169160a55580a9555aa8065861295a88a44104652886804648a6641a452901284a01a51a00660905269a056819449a80880a1aa4442a2102
49459159059910a9a5a54122902592a181652992480811018892288155556024a645a85409a401299a9810482a458a2a54411660420a82822a148242461a6289685949041902052a5888a49925a2554a120502206026299aaa0080695482610aa1155508884858526a054026581994280264046206514a1150809151865250021254201949618a1656245848491082a20a0829a22469854090086288009940410659085841051a5a1a602a6222661544118420648a4a9981146951826606208044045112268511955a9020188a92155114925926189542689262542964819a299982a84a51609a692168a6a2a692228969259a90846902945a62 91406a015099901059866a686699924454451981a498824949a9068a641496a4a6144050464926664100a1021a026696929182960416915048841822855218655a25a596080a6960a814545866142948915541612482a89a04541942a4489a22a4a506a5861186401086a0069614a541566222409441809aa05864581055a8189069a512219668a191620818244811456aaa2926a996a6560004554a16160691a49a4019928a50599916440096592114aa0168a99864486a48166649240829820585588a88196011864541555881a60041652a8955990a48881982a9181660659a819a19815a62561269414891658a2a52222951645094608486 85448a599298046a5a56819a2a88166198600a0618a24548286885841484849a620656562685aa6690560621654205954416a801462662954890669118902922260a64242252465588920111486649a21a88a28588511844a28a46614aa262902288560601a29066988094a296148112101611944221aa184682650a4645100805868654254011594489885661229589a4aaa895a69a14a66a4a8044646525960960a2192866998595244a805a62026448a4001a668a0912a088425922219a2628862948a898a4a4889969408521294986a4a51a81a6994089a124568a00a160285a60110a556106a419a02864868a502a156569196910a80644 a9099a899246281100586a9595556258860118a95a980a55510560682681a54914a280801689968829211aa902958244a8086a0a52246564644989840445466a12808a25204842a19868916209682146a62088999949254818614191815028009286150a11a4a4696582a04126a2158a99415a224806206258005201169985256aa11458255168a2191a50606960482a5a410625254aa22055568858465985559056a6a00014a00511a9606a5145a9aa48aa198a54a99186a25591a52562542606a6419055a162009a05a5482858858416406a650442901854941046a125099580a8822680100889801161a588118125099885628655a9189590 52244852169262616990568a8181121aa655046218506882259549498890a5024568826a2a01a011695a55601014509682848a68585956210662a689a511a5152a96a581a22064106406945459891851a0515a915019a11a582269a58a6141952589a02a2001aa594660868562555114a64a91806808586450451806654906989905080195a1a60a64a42a958a40689612a62604926094041404266a45082a84499520064951998912aa9a4405aa20aa259819915099528a24a96a20645164995881088a894526011626926919068a9464a580609999a918611a9582051092000651a1128a80560602111209120642a51a226048661a844a0506 80a4896a40154220114024965848966252404a6940002a065198a21aa994551a066504a6956416510a8025961a0965994241865261a1416919122999a609969a42984598102401a242600a502a095809409660a0856a0458a99a081a1546500662146259904a8859012189149668162a4aa922281088a4828a820561211824405a059996698144154a5125081aa182580204a5805a9199155659268a0169846a51a46a145811658a86168660a8681546a84454622595a1488185250991096692a44198a5aa16446481012804140a862108192aa2aa2610292898229156a8118a5960651415a8594a02aa48051a19555821446661242628254581 5045265221685090229154401284451989259546864558486a114495a21a1a60980998699a48222a2a406a0a1666a50aa1886042446061924419402186a56a485a04089504a411642445a4a44999025820459151868066a0094561846a299904249202005a22858042159815a58249a08594581294461141aa0504aa605521642949468a060895a50202269681059825519a252209125a152a594162892952800902916484550089a6a616806a481599428829405169084464826a00884561aa625869a0052524620501a21a882862212214826688426a1a000960a41091666a0584814a561404159a01a549211524919805515582204295a4a6 95a1aa4a56669044215941298192402421656242401a80a140900555a5948985695596a165699426025a082202a258068aaa8a5262890184116894a814a0842294844650891641a041422456084a55290a91012a884a892aa2882580165a1080584086aa5548a90a128025558086a9449804622019525082188a545a11104164a0589592a18501a48916991a66068044205241551166949944a480911490a014552604284009100190949a2122a4269a4529a1501608a820194a92820658869a1494556242698022598844a11896814451101826940a525146150626a52a1066a486aa5649a9a641451a486856598851aaa94404518a4506a554 48666110a461014060a59988449490654aa186422a54869210a215a801854102a121440468004406521a8006a02256259944959851652144684991856a6061a154560062868661a0542448691028aaaa618901a058a021581a649160689028a290952624952952116a900286629440259198924848289214618a58592490a86019a68a291a22825698124a62a1a2229a885824449a85959824120192545096542a598461121a412505844089554965a05004565a59292a660581485622489462a08126614a926a942a950611824688011516995486029216451221a022a5811891081689216820166016198160065986069596115895082628a6 a542881a98a159250049218986a48486258465016112404521a0840920052a405998542a06122666aa09986a0a6586920a160a596469a558084640a9a55899160a0410a8418a2aa4129289a26185a506554540882886421a00698069a118815144958686409080a994610241aa612a1812a44a5510642258a6a01a0162a0125295a8024565629a120894914285a502586a85aa958620688080216509461954509a0a52621252949181a2951529481a519525249126145558560121a6010458a65996a0006a4051684a29016816684099662108129555449a966008a12629a544589589251915056a44951505862a65a45614a814605451650006
889518980269aa92952056a4608820614698160a06485205a1156a2198922920891069098482146404801648006595254a50242a0981a0640a0194040a9680a55041a60058290912096aa888a4a1204621521a04694956180a5aa822a5622041446512aa80aaa18188111aa46561668028aa00a44a189a1654492a806018219154520a104194605a42a29a92aa64108628611592120106856a6a48100a40661a41aa140a08206504981986a006a24a18898a151a92a55a6015988a612216a6a6a4415925a4aa1809884668684598285490aa856169849a9991164a8211a84102640a2696926198a19209a965a08a905285a10125649a448842a0 96042a1229094a088122218259a46a226025965850a10aa6006502a995069952a1555a1949015498a6a9219a68942a985959492496a884095a9626949029992199a64560aa89188889546869a2295a44aa8958600841525549921651a24286a998401a280205608989515a8889a559404a9054954a2864545669814952498016051024a5296562982168452556002546451515aa06a8988a696029554969a42492096a880a080812249625219802592425a2409a444a641699821626881a9615a0158892421a6499982562a294a651886aa451a18115552a065a6a2050824640445940999859a48055250040684490a0622218566a446980825 529880695409a16540a2590928a2500928a8658a9828802104850a811081a996024862a94290a5298612951164aa44409298454a2a088244a289020985818128456542150025056a44916154506a2140680a246aa82189040069041619845a98946144541a66a1a48a85a86521458164aa084284009452021850a1245098281689a2a11981209aa2a11060a4542868198aa00441a6422004a2910881515254949a550a14428a9a06052199594298a058a89a8a9484162a4004005098a41606192a1094101092a0651222a9969a22648842802a06950024185986186a2211255a08981a290185245145a680205a50a6594582981180214160842 6698492055a9969189191a62a11946a19844a264525521982451000a08690828614aa082258095009252900a224401945a8628109a485a48292014425899809aa25a85484549480208664905448690929050456055a806a0859044606a28821589562a44198002668400a984aa42165a00822a91191445812992644041904618928211aa9018009915a046149a2592666a84849225a8688969489255860181205a14a46a56a91a606942098a05596818108215910209410646aa8841625a45558a6518a8486549669489a162049044919040240a228a050888184424889aa64982825889421406860494021895a695819466aa4044055a448191 962820298a681a11864185821225a516945a06a01520a9011616a1006501484950890a5a2112440660042a12a481412820925812142884509aa5109221850546a529a498a62451952620551a5144aa08a12296515a1289420842a6958659889684569492a169540808805604151aa82096a19905509a8584290428a046429844221624185251a06165205a8544992069164854805a4a09942648a91488988682485525925916184015618910a040951aa2440919505a018a8629858448455a680448465a5992206405a00889852206198895a854a1156592259999a8285626a944968811681109951258191281a940195988aa2846299845226 998146210209a540061421609654849154461585a61645a6665a1048292412aa44a995208a2a20560914964990951585644124a2a42044a960266911a8191a540511a29116146548084052a15a25445429812996995509a988466995192580121680482805941a59098190a65949448a59611a660144590260a661618681809588101159294160aa11944042101a85450a451205424480454011a10856418254a0482221a909011a182a12a119529220a08a450022109402101442812a625a0525584251a568248a4a56a09944a625aa4200940510a50956451652a6a9a194240a8220021955288525805a21556869585a9aa4509929a091562 50a8a46a4666504119955911a59685461619968a65526080a6a59061958a4869199a299694098981929012a469196096050286551269a88a2160662618440598a02955a48a409606a02656a890089825851a098184945226414590454014aa68695289064818116848546250842681868a51028868964a156010810488444588a22a64189248a845616a8654a6960115242215546295a968028212884a191549055a925481448aa18a5662100589124114619848660222005a125521a4a8546a0a252659011a94068892a5a2606912422244a0988999a18500689a6a2106a44522802152a26a268046502a4194184194a486446664865aa02626 281a8011991a1085258a4a198045558988192160a058a44918a968a99949425654061864215259891a89251a6814a5a906a2a19245a6a60a6486664625595469426a6a115121441196520051488014265255a2244562591a10580582866096468a41261a594910664992262446116464a99292a4a48a94489615828984a4812a20195556022099050868045a4596648865564126652a90151085a84105a65041082898810822a8a02aa918062651aa18a4908a555811aa82499a6145aaa22a0a6a810141a2095945822255011580a659652541816a1954168668a984092645a218011aa4515991059212405a14245616420945560994aa101019 1a10a2a5655685088058206a229aaa684526546202428904458484a09a4aa99509108168925a811a1a0411a15028454041a2824456112868014a520a559464861055815145964802010651259a8026555819045620189099808100440818465416955995a62a202814656080980a085a25a955825215a5944806a92990988aa8442a6a9889664146a6114592016a558a9668086a84490a58a042a469452884858225955008418298582125849018858556860194a22a8a2600460965446511059500098452451012a0214822069228528252a9815261654815a41892082581890968998814894614a0661599104255485a246084912542215812 2a0859a24080a160925949a9a995a4a48265404a99891225580059980092a21891096a2929a840599589588418a42a11144129252458a5096148604a1098666124a605441565a9658a52548a1016662508101829204086115642922911496a82545922448a16155459a821a56802099194244a81985a806921541286a95a448a21961441146245026060809921a64a061425a8a0989aa00292824016846411aa695a2500941201a98aa045445a828462915440611081465a4a4182a46454526a8485494a6a5824699146154102105820886aaa9aa0a05a55a840409402006095188086158140029598a240022aaa494a1a4048051509154499a8
649a956524800028a54182299240956518080516aa4004a654a5a112518549080626496904294aa262268a16540a08859810a6809a9918428416a86469526a86990289850559669008484a0409224284458a1609401256a5401198618a8805564a642129a40286004118a681699092a628216860104690924aa2880629850289802825a154a9466a01852101496455699425028a06944689190600294804a482a021a12818960105159864a281a259494262654a86a14a5a05451455426801984a419aa1551a80820105150885449655a506869a608665644a1286a298a1229a5a405465a4698a5a16508696481801501454692aa2049969141a 5a214214a69158855142910840a58015694558186882686994896aa0004299924950a11562058499aaaa2665aa458641610a92216286a91955294684098984565842a955564a4901008560a10520988625595105228895a6822614066122055a95a049aa454182049812120040299590a552245050859629680022641819821910818656648012a844144828089158a4aa8646454901695545292a26625669496108410aa2141a58990a6162824611a049a6851a40046266195499814589a54669514429994009945222922668610052092159a641962481aaa586862a22a9182a2450a91269651a618285001049494189992a45494a50899195 5a51216405494898116128a91008161109021208a509844a61a08906a9268a914591052218655459a40924420100210a942268959262a628955a4868218240409209095216528161aa518558412594140a014625a6201806a162a5a849286862412998269098169455984221a8999a1964a22252068a684492418510065156001a6a406aa0088690091820904946129125161008092848a11aa46922185a0a4286429199605849855291009456992650501a60a24421445a61919a450661a1a268014800a121246414a9614156918402a684919541468509655806a266505912a142a29296156851298588144521144a52208948489946021686 22405162922602259a0696516a510884229a6681050446249a2120a5652a9699014425218802250aa465918aa845292511291a66566408115065681a4861069a51452491aaa666020651265609a016521119548995811895905a19881945068a8a401826444a54891092081619a210506084900a025592219042901a981100280448429285a60909052616aa588115258a5466404161558a52422a14658912416a110899115462068620a809a86981029a180894916520a61242a51281804441a24569882690916114185aa566aa9921458a2266551456a0aa00062058010296a8860aa255924996005224644aa48612088a9a5a8a1810620506 59022886664546605a24a8009a1aa285610040a915645145885894001044916a1a84a0a95200995949924655621a4154255002281a080a864924a44529219206285a0945549059a19a1612a8850565045a2a944282641a55904a2016648aa0464881954261922865540509468115410612982a1a9619088a5651952581129996618888828814520616a6926229559a8210a92268011065a4669a29aaa4a0a5008858645004068a802a681a8414209902a6a601a46649a855aa65a1412826aa0125a0401a06295a54956584950820889a21945a04829208124196a866606149168100884a848920549648aa0a554961854614481a51469a0429a0 4a255aa11602a24900aa5a9a019a224169150a9645a098956a90211510528492590a922a59a982a494120046256102960546191a6aa19a2486069aaa69629a542a6458240a22104282a88644550054689484054089a6a5518465680621026199441448a59910884026400521128a200a0514a5589a66241a46961a140a912812a28200912a58581954aa64506a9660109695a2699a629aa5996868549a6491140910811a69a184a408069049402161859a6981005216604990a054505a95988a420a90aa96914145540495241682025a856681441244a05246a559a6a2201122852982859516a8429a54415116a2a24490951126a90aa2885102 51854a001690a222899096902860199088455a11006614198015912182a082a869a68a209190221482051209006186a496a888240250846a9252601414a68a86690490208962aa028991a8909a65aa101804866802489189224661858049429980051565aa460980828982525561a226211848451604500986045840a41206958822604448aaa55505aa151990865141521a5189a455829906686524a421219a168a09199966461418a51652a62645005542a5480140410a618aa24840264291158549562508012808820084862809a6140a29805468649649480560921255028600a85108011219654881819a0a24852a10219a84aa246aa1a1 951609a2a605546894a429525441a0664a8a69062552a0450988a96680019a194841698a090024660115954664104089984884899a1a120881052101096a8505019a6aaa10088a994a224988a51906915a18a0860196586419a221a0a0248116a51012648a6a049424a860860640985481a52849a8a02150812616500a419a81218268919581104625650206502116644425a04211880a12a50609921a145850448529a14120058a669195008699029951a266a25195624a144a9422469622898008465a259604514068a099544109445a20a96a4800948005a25684014110a8aa68954aa88822a68905224a64880aa111198481864494096866 625591210411680650981a0858641945099005080a2115681888284aa6662958282685a509918205800059021580a9428914025195aa104525a5449542108a805060600918a159a80802910824288196a2555a5200a489226964229924a880966800959898599411a12804518665404014a6950a5098415a54902a182285061a69869221a99101940065061660128984a15a85590a95189854a1221509691a560a1a2158580a2585a9155625600055491488921a1154400968525910098069202515466409864581280144255652a812486564922410508585661190628418259464521500860610651aa9aaa5404a94260526498660a454a0a9 85928418615921086445954a28461a95a040a6a2a018a68969992a515125964126122a869198815464224655222a65240008119849520a2820a4818465a4018545120a11264a590086a46110608a05589545252122542650a2512495198a0a528810500a04890a41891581a590019029242655296a818112152a601112a5192548a299545a195aa2662a5a819289012455606085a6022a24a92016051508518429089001665104a59044214102142229450912958969598a065a020a816540904a580a2a9844080586090581aa4026204681965102195220954a91462a48664581689a522812498426422914280025a905405a02990a60882162
66011a40a64189956980619919211a258644540162418921454a1421994428a025204281294a1821615249422882504a856a596a012408502901851211a5000862051a66a8254192a204a04219115550a458a6aa9108212a225a82882822941011988542188158195514a85610a1410210a850990852605a524a551081a08449a9a0a85900884a50614910a482a9a209689a66159668018a68a582105511245a44592a829a0985a9a9a2a0a21662819946610052099296a60221620111a051555511664981291590a441228450a05666818850a909219669502142998aa94aa6525258901545815aa5602a54a01191a2a218468911289a812206 11290292061aa69122848909a508a69210456140596468a00a20066202805a1099a50154a46a59256558405695a281956452865065644419440405050119aa894260556a102016a001a4594549a051a525080568644a581a84a9621551208a62641560820694000192a192450aa9080611a95459529124a69864915824518146a51094246a584165a81904a919226586496a5050a48a55685961061180004996199995964a2686a224615020224a29a4148499682a280428221505a09a22a55686060461885a6800599565a8901a9049465892a2852865965621a5668a22410a662659a65680141aaa98215858961949a06a0508a1a58689908a 526129511491219929a8a6aa84a228a026a98aa00481a1065121aa2125451909189091aa65aa55085095a46284991998a8518041a5058251192442015289a58482245a1a501891a151809056912a16859946569a40a59101629165544159426aa8141126a500110008662549096498511468215910a05624295081911142552940429004582a04552182050112a6166495806a4155264298050150924949646a485a0285020526a008450500455452a219584a012020a2a204a56980a46108aa01542822455696241a685426a1891496964a142200525658005589526400694a9252a685a4604060648096896659821a19116841062089541088 65056695455a1258a896420986a1a88418841464541a40628569a5616886a9aa2482a20a6955a12958110618099a19455919a1924819566240860929650411964a8a511aa2526a814aa289a99aa29a58508a85aa555a8084691685a1589a500a4089521a661a164194980aa1848944025a429990546008485a64a44250a58108181824699052aa082645140941920a08895964a099542a4211a10059a5406995a818a4141529996a906050668a6048a89a01528a289519256a6552200426150a164a649405a8a01586042504540604664624928a6102094aa5a08a888912626856a412144846a5a8480a599841225404a464261a4926921a20a1 18859655650a8201a0516a204a5a0294a814a802a1400a98668612266005492449801aa62554649a0a694880896026068149199a81485195680491665a995492464041404a441a856002a296299116a8664940404a19180924552a01121452140502001559648aa406108aa1a214269026201645196425904180999842926912a51a4860a240a05450016549209582a264292a926056081a2a682556a10262a65a509554686066a6a814290489591228a50805629895626541a20a8204aa984891298260611160a511a46510a12650055565418aa145280854a0521a1a665254a895582a08515846248991561489281a480699a016161a816682 188482aa46204220206681680648845a8a08a49254a4a485609549814488501a4aa688420a5919a999088a12020058922595884246241849505064aa642a40809a9a85a8601609a562a6a04668669656281450922006645065152566a9625556150a6090996a0614a44a15a992a2629a26884856019461640a64000061149880544064608421248461056514196a52014aa68a259851948a2aa58820a21a98a65512a6a8688609460054aa962818645500616088599246202a412820991494a5666516a049541904a9146099562255a8aa408198451694a0082829915880996a11a091092a650a842484212a09aa496212645816066026664865 a81a5945991145a969280a5a528996986608102a2924048a0506262018252a4941684282845295089a956a9100865406810920819a2444aa6a96446145210948925258519a9190015450290061195691a94a4529852a222a2466682a8114a80268511258129909a465829a491a412881510158929022459a20a61118a6a48944465a510949245a551219224696891891615048426285649581826495aa6694191625662094965021462564615a5486129624a09052221a618402802451a02a26266992011664a1224aa554589608aaa88241128985991052194a699a015a92896451055a65944625826610a92a8900aa0658225089925455896 1854291a2a992aa2226662a9a2418a256144101a2a8906598a94a15a1aa5a26a418a19699a95098a821619a89984942608122266a181166840828451942858829851261a06195892a1654960929a4252645412421515a89514a281a11625a004a29869a40a6986606092818a0049088440a010501850a255a106629506a492a62a9a899010596094925252220964a5a12488829008929a4a611101625000814216899152690906586a6286966626859a119a6281511885158122548a24049801a04a04882a0402251965681429195a4829182541558668a56a15906a241095625118a65552686a25a1142a1521910648916005894a5868aa9650 954660021980400409142a614a9845688a184499421a405648458245602a010219249a60a1521a1a909266465aa92a89942462aa516658aa2444086a0010829195069959296811894909048a0998954864a611a099a281668a049a56aa52064410026181018a5969619859028128112860a004a68486514982198252a94a800669a82a4a255a560021186284841052444514859680a806668496202092642156896002492a91695a0994aa654950aa52550a194904a69480606898510689201581046156610254490011a2624954a4541669986292a6a98158966554492650254a8a5a5851a56889959256801128a011a486a4521918524528a1 1648050980608595401115005816692020214844a128804a11686110a1549422408689046022826a54965142a854111410a6002280529269918960848519556024092a6020488002a621201a4aa1605642a921619211941299a0262a42865896986909a2a8a59691a6a6a299a98a0525105119152a2a52a844461515426a50a114964a9608aa05850205609496428411006a669a20a8864661a62814688846068800824568118500648112a8a894a1a66844598421259a55419a066a2a86242020a41a0646aa9a1544142262082a1582180512209a4a4a4452948aa021404468a56481164104582550501655095a6216898940989140a0a19894
24661a4169451864009612460061665214501a85160aa24a625a14444a98865286a281201115491014502055aa445154189859a6a8a10249410a61a65a846825122209a9a55082529a1a90a0a544608089545142108801222496a4616880225299916a2119605568284a64a00418215a65910254214a991015445829968005081100912285095611144229481141062a6602092094a9155040195856860a0191884429a5925146025696519618418218921a9882a9449995201595118050112168aa4456668966018a08a44852895a628a54119249aa96a88012085009444698568aa65a040a461a28625659a41054424a1a5554969891945a56 48a668654159a668651812999a218188112950815181446415aaa0a804a212205a08081618895a1158225610592210466688486a4126099656946648611505224252a84a29266801144080aa946094696629091451024aa40a66910250095406121416959580546840a6048125a6886266296a866009410525a2892a9469285068120402440819488520a8586aaa4a6092421990a9a8510a21696614a21101a982a16045508aa112a4829a60200529a265145a200a590209962a6a08288991a621219962a456102a0484a9110498692148556aa9248a1481502a26190089a921168a8988a82248204aa26a656884602805550a5626aa16aa406 5529165a242a1a81a58281a104040695466125905422a0254014a41a50481405166690814a596214828698a125858826229a1558860a882488a088a02900861854254a052680548948a626a6a8510891a2640625909905a4999a546a2a9926565a606406849044645a5556499894828285948861580a921a084a50998189112692882852126629500482a9408406a20a8652404229886242a6595584696a82a559a28195a5a4445aaa1a5a4a8a285162a5a9559854925604804618819520211065295559115268900a6a5400461122686444898a5915288605a4081aa50428420628aa51a449450991489285229946484058902066a94aa906 42616161485490a56949655195a2659522169a804512a26aa9651591266a9a568a62105514642545a2444a5a06881161104451a062a1a0a166a15201049061a28a1655a11488a021608262a658a62a2225445452a5a8112980929a6008029a4896641004128054a61191259406616246a56a954111a56896612219188992915a4162a026198169408528a0484169a62905426288450a486a15015096692462482a894a0a4818500161262a99aa1592484a64440a12a12522220120a58892a698642556052aa81692a44268246859065a18860a9288619a928659668440660a4588459a24581a2042540a24464682685a92880064242115250109 2260649486a20a082008a5650699050a914a1a816461a9a66822121aa91695494292601a044a45908155658a440916815944060a41aa05498aa92a260062286a99806844a41a86558059596046a1562159898480285aa0962a6a201885a955919a094050a16a62652098a9108459616614601a8a12606461985854885801686011625a245155442a641055a665859a8a0549a454a81604a0a056a25aa19225a4929a8619a55545240456159005a848200aa05465120194014808a018a10946809966422a140090950659a299552a26821458a240482aa4505aa02009a856929108991a5a2926a4a82a28101556646a19a6501a6a02a54556554 98054611991a10241641926420481429948921026898110980481998a0a2aa60102954a516a261882a89a05856aa5049541508918660440665425621515484964816510680016820646400a258989665a825996605465808445910414885a2a4200996490200110608509a96582520085814400161255012205219191211559642198a8290185420461a621a9aa8644145869a4056842104205a54a9915051aa2a64aa62818088a1aa5902961a19a48648141a6594144a215898584512549a84418542219a02461a89a826066466284a54a55902a188962424240a85198516850519a4699995862a9a19512415a8a490a2a942015280282901 880041a6a6a8a480aaaa00a5555aa4004a04665241851921286a02215144250105410222066295484aa8885049959054981a6649280104842656452444661491426a886400651181a854652a8066856156695556212195041292a42401a8519898648226482a9495802a95698944851280660601a16111266110a58056689499616494a6186a05246691114050a505a46018aa4249912068829522846289505946094a652980441951582911456494a1918a5514105165294118660946462108484008611926a918900056199995a484016116202a02a6a4402a1566926989a45661414002800949666a9a869126804aa8021452624644880982 292958405a06104966114a944555a09a2556654aa8a19a1185a58689018425a25864a2a009450884990a88981185295aa6184161a894a8640289598a54541a01486418048a58264a469401416516454692940081051a0a28561582080962a8968a56a5902904aa8a02600a2284644246686a265659a4210949008a54a18481110186642166009560519488a1581518181a4001a48626921a91825661a09966215056281694a9958a822259298046a112a818a2a646841982014504144886014468288a106086a688015491a4a9648499656242982429684245981aaa889a46a4a29985960900aa18262905240918199409252966822492190259 55908291222a015265625a956064208920a20424620048422898808526516954a158916025a1a48a59a62546aa9804622580061400089562698a2a52a0914080460a198056a4412142054909915a404452429a0505a9426920a05659528a5a58a5056a8268689a455859862a62140826491251966a168010a54590161429569665506958998848206409996066a52224811a121680000914004858a9a1a96811656294089a0a9050664249586522505a4aa111111a02142a84110a0aa485a028962804200050049a921065458a5609264405a9099941295410248615a6101224128609a85022505540090628a856689611211a02a8a05425900a 4850150469254261aa2486855a6a9a41a5816406aa66128669441a52586aa1694920a592801a26800a5849a210809241698486a8a10516669014228600211002a694659aa156a002209a5216a28a948a869928800066a1612666455226012a2209558a61a9a0a2118649961a08956525954501552a4298625612a104214112921a988614a191166a115a286998955224414a550252826549260454641998218614066842501091104154591a45189621120552691594a5444258a4425a2520550859164411594804591a816806580a26051a581205919a04609950a55698a51116091a56a126242a1a220452a81a40150a208546862a09262861
220040264985681295a18590629456418892051a22965469628501228909851a4a2a546a6145986980821214019a19660669208251802a54655599aa0a1105200226198a289a881a5aa24551990591221985155008aa949855a99996421604a99a995055959189545262418584686519a1182204148aa945a842149480012a24a8169215a4515a96a15a2aa652668225a6695114221141226a98595924a0a980156111611128922456a6212aaa155445181a068012115055146a022868081029810451588a02049106a9a28158085401a560558628058825998a2984a424420a120040a650882105246164815a0054816180a8a881491549a426 6886465a546a08599021996694502098a91684a449285a412110068690299aa4510656245585954a5a960185a2216151061914224504602461561448a865016002a2282551505a252a6aa4a8491800a0005080545a84222946002504296a92601414a8100aa8096162261828a5295025942450aa4422459a25a4126646a1895841a5011556251a48228546581040048aa60a0806986a50891208605584568292a98981a5a8466a86a29851981669a0aaa0a5688a6854421051a61419956a0a202104051485a021605aa006a691254846120492868448160248224428888a1aa48641a161620905582a95286040088154051a0a41462288509451 800419a4666656a88101501152056169a4696a62452689898255aa24146424210995a6859a02216695415a656a2884450a5102954845886189aa1140481968150955426a86a90506512804885525265a82a94a695568949859a858a9909810a90404582810820448844a10212442261642a5a42490aa4204928860102892241684486188810005a5494aa25456045496a94645069991611585919a142040562661054044648228614802615511886852095121460400461a68526501a221145a6120165a126128915866084218a802910011222556099aa91844451a080664606496a19a98a50950524a46069550261196106544852820616558 218560462165a0014996406254948119684aa222515a811909a661a542159965529510248a892a2a64949061a12881851988a99942595518818885644010548a12168a0494a49a68112924914586661292261208499264446458659849244624815945a85148289a41226852a2a829655aaa1692024291511650a11459996a142848620a602082185226049a26868421681698098662a292968a9805629821a1a51506118616452246148609980604242494642150a60065480615594a0965408080844515a80496a65858aa4069644862660048088110124a5888529805960210a592192602a956416961105169a65168228680540009004124 446a62425802459869410185aa44828544665489aa41545125411882658aa6a0944828299855852068841961261069aa8256a46aa204280121a886a168145629a4050805204a141a29999010128286546102505699209846610626a422964926599aa2a8848a5619a50114826a660a69a5aa2a68209241154819aa98a0550098640445911652a6099a6122220629a845596a841516290a044996465226901a12a02a46298a2a25a598a8649201428862668695692952661204a0101868260215a48266a462820828560a9862a504222941416a058a0919902a6852184214909155295446591a6aa940195982a91880200458921a699285925606 616485245a614a9aa46425800842254654a21096a214505008628124882a1952985569181658552994492584840a44a64021668905a19099895a41581054881a22a952a608960a5656826466a1a668658406659506014a608a5554a018064a05550a1640a2811aa852a564182a94050442996120529889859120518901111669414414225a2520110654208455a4a45aaa42168a0aa5a4a05268a416266a2206902aa60a219040459a1286a288264189094544104016a5140220252194804020295a1188a1196808289680582a96014062229029585aa266691aa485a08514866654400698561628219a445041868969aa9092158002626a5605 2a46688542a499189151801149a65018a994860284a88aa422266915880955a1512401a0111a5a51280290151a5642999152060a515481461a40289418996a80168150091a585190a4a1aa9606a5061954558a5516021560a92244650a86200641a645a2694495986258215205164a60828a490a2060aa12128a99a4465681a0a624060520226a9a56614468459066899000a84a6aa0816611050a615211595650a628a68a822845a04111062a145494481901a9a182154009421158111682904146009125221648001966924252a8aa26aa16645a68aa60a964818912411094852029088959a5a69411a24564a16269680616028a886124100a 61262552028584228081661215a98911a82a441929a15420a0229482262924122a46569424941a45a825259a292602a06068a4a441604a62564842a498a8861852a15908694801994464a90255aa8800281a64029aa9a2a8828a650895281120696645aa52109006486a98446959169221982946995966a1442a02945a1425210085285145aa42aa9268054a98a4100a5105a8244a94a08026aa8990a0892519a04a4069a95801694984619625496229495428941546a4a2a9658156591140984162a08a650929401998848151209a59559a16916025a960869620a0166491196419954aa912688a6800a2165905105516684419828194429484 a5511064a246551a195642a0609aa51068005a948808128596aa498555151a5804a90a15a08a465644091021824542115866a506055509a8a460a0424a22465981982124054869969521862220891298806622a8882814142a552a6a12a9694529856200648264a50a2684108a9080521299a810580145a692868a016559504a04082a20154089069804a41a2010a49285586616900599a8296a18a696145668a96584a9058a2165a4848655018a9924049460094596020985a4298901a00a92551694a5521a24624019955851226894490a621580495088196046616599819a60218a189881622a8561a20195808068582519568265201516a0 4269a265192222146a90a9a20896184a244521a10249502449456022a244290659015050211a5062949580a659288461602442220a122506549122622866890206a4a029986914648a09a56560555621961a2a41948a42a5611215150061a9596422462046606629425aa5058995918a66159a891a49505562a9a624481a26aa84288a414659a946201268aa6280192096960065800a860a408a10955661128a9a42459a190816819028024a164a42150920805502952528224222694002984004aa925a6192606250481420a50a694841642641584249156a4282954155901a8a210081064041682989a0959894802056a456a555026608a204
9194601449419459a882680041a82955294820012081696402868a4a256061a968908aa4810489a92206a191a19841652648042944a265611a9a04211155822040906a149492a652101259280aa125918095251269624885248596406882865106228920958969a1a6991106658421484214a8042a9046090510aa14a0550a4809968828a8066a59050584888a0821925a2a60aa119469966181650126a8926924809a68a020a41a565506042909419509064a895659028105426a01655a244a5124869212111656800642954182165a904a150150922085898a160114a8619a02085092a684048909a5a25214144905499849a16a686a801a82 8a9a402a899150449a829609162a695651448201800a9102482a025289a8590a89196081686900a2519026429469480a199454aa1215652861850166188146480aa85a5462a44140aaa156981615904886549418202412248544082488a829aa0988a8565180218a2000056819a2624445860414985841884924804196a10006a1826889205554699a922565189a1942a52889052808586098161484985a6862521249055885a18280940111656152250a00886a1109141468222666110220061008a94206144a449198aa899a564062901a99858006086066629261565154542aa9698921925955a884a8a5a9158680998598a4401059265426 5062a8249908869a1102064a820416622846556a2581640211aa18a5994a65644288281085605586010964849200a54091401064a99552812011066918566108265059861a0290a598090055066a406a40655a68a1658190908698555942240289866184922a91542606106a9a29926044609646194185891a258242921265258961812898269160a48809a129552868a6895aa48108a88a0a4441165a20584a260024598289269159aa2565a40a9425542499a029a5a9661991a02a214a5a169aa8940a2110190995118561016840889419014085454a20a5628695619a5946002984a44091111462981460a8a49555806985269819a6651a81 92650918605a098582461119a46111201128022891a5859121a0614291a558225912a856551109828149024929411900668a45a6a01080a564505228828a6845a5a4851620a98145a50652611250581a484a06062454098a12401411aa521a502826602606885a902a91911589500a962985126528096854622661090061605890848890a906606628626a2a4a6504511a9040298965660550825966006202581000562559828426516186a548154292160890609984866a85a5a6528504191802566a2658965221081882660564a415564059266502a660951952866529222198284682446904808120a4100aa84a165064610214aa9540a520 4095518085a526a82588598812956421084594269a44401464a858a840046156a599a12a261a1868aa8004a026412945a685152659a9944150825809299284080a252610464928645541086198984a88412a28646a2544264140506509a2020a59145622a84410148458054895645106015a628842a66a5428a8188812099926598984118051910195900a4825486198612280490692452162250a2462640945a604aa0640298258209521140412619241a215166050a9415649259986912a6519001598501a504a48a194205591a1299814452a99241a4a8892225a00542244590004a48126aa019512a249051405615495a8a4599248910851 49a02961a1004109182aa51282566669a50a0604822646910942221a6084999a6869640409464a949655699452852499696a211a65692a846509a9224112225026140a552920959a6914019155a2a2699915a46448a802220849459a8980a699292112492005590a0596028024528010069012a4a999866585856a9061522196a4020062261501609a4091a004650845862aa5a2a8661899665a0a2615004028504095a26a90a129884185aa124a9a96404588242806a4a8886808286524514a40a9509861268824809a69541129844664a551a506669a04446912929442a0824a2891456095818a1aa40988498a8aa864a250452581455aa409 999a5009565296966086268a19a9a8504a1892246a4a889890a280652a261a695958028042128a5924a4698851049a9a86859a9a8aaa6141a15060564058215a692890a68862686a88000501a855a68a091440118218981886254105a299819284164180186881101942851848088518069580822658a0892a1988025851541994952855241490610a4440864086460982a46a8a21216065092488a6898958a8a54111662a0298a1a8aa654810564a09511a15564608a65186988668482528501420201a9255224282555211018a1a6112a245906219629908928681095a1845958a614659289626229620824a6019624819600a9888aa188028 44a69451591915a41862a0186a515504a2004689895aa2491a2545468844180a2464a46a24218860609581569408905496906284860621910a1a65058459560a1861640169564609845852455021246099a8608869a68819400941890a4201a5044902869695166969229a5808429a4a481a4060441185288a5956924988591202a9448a4581509a98229180042411a88a2146a4a6a610a4a10296a6095965510462a9124685008699999850a2891220204290594a008942291068aa862a685158502a184014884561424064148a9a000114144a8a4590299562469828289a12892404a856208628484a086a28a865499401946802404a02a821 8916019045560a155661512949582652142a50012260991024288a14001a91808942805605950064404881a4512664916a064a68914616226644549291541540a85a180565a6551599a99a95495824662210224a8458a01002a5a908a6a9549161aa40554a54a11021142505856aa990491804a9a5a689a2a0629a4a1a12984260928a108482406a5489822912951885006089aa62420111656115a645040a615a6656089469a806814004850a9a1aa89010a51a052a260490a028168145269629a92a622a0a2a5a9680aa4a8a222294016114669161955114956a18a824226810201aa12266528911a69181955646228469568a0010aaa95594 9694686148a82846098108a594aa6285165485a615625526828065a2a644a696a54868920408a846692aa41188894216298906566a2a9014a8919485926122192400088245594044694544989081a4aaa6aaa05450902869aa42986a6a94a20611a818120466a120264966506051054151969495aa68a18a860112098809984825a5a48aa4616a4641a85a8848a6644911424192118221621982924695669216066619a48286408180a46819290822481096602552592998241a1166649680aa899890a6a6a040461a90895a2459216686154a10a24a65a54089848a45a8a8a4865a858568640655226858560066249145a1a564555605550514
